{"statues": 11342, "derive": 18547, "incredibly": 11757, "##amo": 22591, "black": 2304, "\u5cf6": 1833, "##poo": 24667, "\u2090": 1560, "wounded": 5303, "\u0e19": 1413, "[unused568]": 573, "\u0986": 1348, "para": 11498, "foreign": 3097, "anniversary": 5315, "imperative": 23934, "##pass": 15194, "##uled": 18696, "harness": 17445, "##sett": 21678, "correlated": 23900, "decreases": 17913, "jammed": 21601, "acquisitions": 19530, "couple": 3232, "aston": 14327, "##ogical": 20734, "##dor": 7983, "aggressively": 24663, "315": 22904, "eco": 17338, "usa": 3915, "advising": 23875, "erich": 17513, "##ructured": 26134, "##uber": 21436, "##strom": 15687, "hike": 21857, "people": 2111, "litigation": 15382, "##cliffe": 18115, "##hiff": 25798, "teammates": 13220, "negatively": 19762, "chatting": 22331, "argyle": 26503, "institute": 2820, "sexy": 7916, "freeway": 10846, "firstly": 15847, "1763": 18432, "else": 2842, "elephants": 16825, "##ght": 13900, "clenching": 23970, "##escu": 19434, "##\u05d2": 29790, "alice": 5650, "fitzgerald": 11864, "scramble": 25740, "peking": 27057, "dominating": 21949, "motives": 17108, "\u30ad": 1701, "conceded": 15848, "##plin": 28296, "gentry": 20262, "macon": 20025, "lifts": 13695, "feeds": 14172, "[unused859]": 864, "##ods": 20620, "bumped": 19030, "##\u201c": 30058, "##jong": 21958, "vessel": 6258, "glide": 21096, "rte": 20375, "hearings": 19153, "##pped": 11469, "gazes": 23514, "bursts": 19239, "[unused737]": 742, "antigen": 28873, "partners": 5826, "surfing": 19967, "##tructing": 26310, "finals": 4399, "tagged": 26610, "explores": 15102, "audit": 15727, "confess": 18766, "aerodynamic": 28033, "negotiated": 13630, "bird": 4743, "anterior": 15099, "offers": 4107, "guam": 16162, "##zee": 23940, "merlin": 15993, "floors": 8158, "dictated": 23826, "cupped": 13740, "calves": 28023, "bunny": 16291, "##ii": 6137, "column": 5930, "taxes": 7773, "##pop": 16340, "##uli": 15859, "exploded": 9913, "cai": 29080, "\u8c37": 1951, "archaeological": 7611, "adds": 9909, "tight": 4389, "heavenly": 16581, "##onal": 16026, "feel": 2514, "responsibilities": 10198, "wherever": 11210, "contexts": 18046, "curling": 11599, "##tf": 24475, "316": 23980, "bureaucracy": 25934, "sabbath": 19546, "##sion": 10992, "[unused758]": 763, "appointments": 14651, "neighbourhoods": 27535, "comfortable": 6625, "words": 2616, "squirrel": 18197, "maria": 3814, "##oh": 11631, "failing": 7989, "hon": 10189, "hiring": 14763, "shrink": 22802, "undead": 17315, "##quil": 26147, "admit": 6449, "1724": 26423, "##ologists": 16886, "##rius": 13245, "columns": 7753, "study": 2817, "[unused383]": 388, "ryan": 4575, "tasted": 12595, "##\u826f": 30464, "jacobs": 12988, "coefficients": 21374, "kris": 19031, "objectives": 11100, "harta": 26283, "temperance": 23372, "protocols": 16744, "##astic": 20875, "eh": 15501, "##rzy": 28534, "##pine": 19265, "##ude": 12672, "clinics": 17865, "sniffed": 18013, "novgorod": 24338, "whiskey": 13803, "##zquez": 22938, "massacre": 9288, "caine": 19881, "marion": 10115, "toxicity": 22423, "michaels": 17784, "sigma": 13201, "##azi": 16103, "weighed": 12781, "coke": 14492, "lays": 19764, "kurt": 9679, "mammoth": 23714, "freeman": 11462, "preferring": 21393, "greet": 17021, "middle": 2690, "lopez": 8685, "witnessing": 24740, "spade": 23288, "roberto": 10704, "wood": 3536, "##ness": 2791, "begins": 4269, "wipe": 13387, "snuck": 24492, "##kins": 14322, "surgical": 11707, "saxony": 13019, "headline": 17653, "##\u0280": 29693, "capital": 3007, "##mur": 20136, "##ized": 3550, "adequately": 23613, "scenic": 12916, "chopra": 28826, "teller": 21322, "##\u1106": 29995, "[unused424]": 429, "##combe": 14149, "unfortunate": 15140, "snoop": 29044, "451": 28161, "##rva": 19146, "michelangelo": 27701, "species": 2427, "cartoons": 13941, "ren": 14916, "##ikh": 28209, "mavericks": 28330, "halves": 23672, "mare": 11941, "maintenance": 6032, "m2": 25525, "kn": 14161, "\uff0d": 1990, "jeanne": 14537, "string": 5164, "fits": 16142, "rwanda": 17591, "nocturnal": 23789, "##ome": 8462, "staging": 15308, "colorful": 14231, "psyche": 25774, "##holders": 17794, "[unused85]": 86, "akira": 21616, "shall": 4618, "fremont": 22550, "cream": 6949, "##issa": 21205, "##genase": 28835, "mergers": 28585, "inspected": 20456, "##hta": 22893, "balthazar": 25021, "jennie": 27557, "solution": 5576, "epidemic": 16311, "kramer": 16322, "engineering": 3330, "elgin": 23792, "bonded": 20886, "29": 2756, "reared": 23295, "##\u30c4": 30238, "linger": 26577, "1922": 4798, "acacia": 24766, "\u7af9": 1933, "##werk": 29548, "[unused986]": 991, "mildly": 19499, "##uda": 14066, "cf": 12935, "street": 2395, "thickness": 14983, "appellate": 23240, "caravan": 17184, "##apa": 22068, "##sian": 17043, "christians": 8135, "quick": 4248, "##cular": 15431, "flinders": 29120, "##guide": 28582, "##cend": 23865, "grasses": 21620, "gunter": 27834, "wr": 23277, "##rd": 4103, "hurriedly": 23878, "37th": 23027, "rama": 14115, "raging": 17559, "psychologists": 25428, "titanium": 23431, "overheard": 20443, "northwards": 27592, "[unused825]": 830, "crossing": 5153, "grams": 20372, "millennium": 10144, "goals": 3289, "house": 2160, "aide": 14895, "estrada": 26482, "shelton": 22230, "wilson": 4267, "##kiewicz": 28563, "serbia": 7238, "unexpectedly": 14153, "heterosexual": 28229, "unpopular": 19657, "tribunal": 12152, "electricity": 6451, "organise": 22933, "recurring": 10694, "\u266f": 1628, "wept": 24966, "hong": 4291, "prague": 8634, "##\u0435\u0432\u0438\u0447": 22646, "resolutions": 18853, "\u0437": 1187, "##tters": 24168, "258": 24398, "sho": 26822, "imagine": 5674, "principal": 4054, "vulgar": 29364, "pins": 16300, "##\u0986": 29884, "inaccurate": 24949, "\u207a": 1544, "1900s": 16430, "jase": 18626, "##atics": 17592, "pension": 11550, "overture": 25052, "feeling": 3110, "##ddle": 20338, "moines": 23286, "##buro": 23670, "dictionary": 9206, "attested": 18470, "marriage": 3510, "ow": 27593, "disqualification": 27782, "helene": 20149, "implied": 13339, "lausanne": 22256, "[unused875]": 880, "retreat": 7822, "garbage": 13044, "claremont": 23716, "favorably": 27597, "remains": 3464, "##eki": 26576, "##kken": 24192, "mcintyre": 24564, "sprang": 15627, "nat": 14085, "pursue": 7323, "heraldic": 28867, "##roving": 22046, "toxic": 11704, "download": 8816, "clit": 17962, "boar": 24187, "evan": 9340, "socio": 17522, "##nock": 18057, "paperwork": 17397, "##\u03b9": 18199, "corridors": 17506, "regulates": 26773, "developmental": 13908, "backed": 6153, "presenters": 25588, "deliberately": 9969, "translit": 28468, "##bright": 26614, "223": 20802, "antoinette": 28429, "##0": 2692, "self": 2969, "honey": 6861, "1760": 19096, "altar": 9216, "trophy": 5384, "pouring": 13053, "##lova": 24221, "vs": 5443, "iraq": 5712, "nakamura": 23981, "supremacy": 22006, "mustard": 23187, "##ulator": 20350, "##11": 14526, "coating": 18898, "technique": 6028, "claims": 4447, "##ridge": 9438, "forte": 24898, "crimes": 6997, "##\u00ac": 29655, "[unused711]": 716, "\u2248": 1606, "entertaining": 14036, "adele": 17623, "mk": 12395, "##moor": 17622, "bones": 5944, "chu": 14684, "admired": 12749, "pitching": 14696, "maru": 26280, "##ight": 18743, "procedures": 8853, "superliga": 25922, "london": 2414, "##ons": 5644, "himself": 2370, "waterfalls": 24236, "##cs": 6169, "demonic": 23170, "perimeter": 13443, "##km": 22287, "furniture": 7390, "rocco": 28167, "invading": 17657, "linked": 5799, "frescoes": 23360, "minor": 3576, "thrust": 7400, "christianity": 7988, "whip": 11473, "kit": 8934, "stations": 3703, "##horse": 23024, "\u25a0": 1617, "thighs": 9222, "##marine": 21966, "hartford": 13381, "screams": 11652, "launches": 18989, "stopping": 7458, "blu": 14154, "[unused227]": 232, "jeremy": 7441, "copper": 6967, "\u535a": 1786, "##ossa": 21842, "modified": 6310, "illnesses": 24757, "transferred": 4015, "paler": 24489, "reporter": 6398, "developers": 9797, "fenton": 27096, "act": 2552, "potassium": 18044, "identifies": 14847, "newborn": 20662, "##0s": 16223, "##grade": 24170, "570": 24902, "officer": 2961, "checking": 9361, "centre": 2803, "edwin": 10049, "karin": 24537, "##ont": 12162, "groundbreaking": 23222, "bailey": 8925, "##region": 23784, "successfully": 5147, "annoying": 15703, "cassandra": 15609, "henan": 27837, "1945": 3386, "multi": 4800, "flushed": 12953, "reiterated": 28960, "due": 2349, "blade": 6085, "##u": 2226, "##59": 28154, "lax": 27327, "studies": 2913, "##ol": 4747, "[unused930]": 935, "visuals": 26749, "[unused731]": 736, "competing": 6637, "##\u05d8": 29795, "##\u0443": 29748, "leaders": 4177, "murray": 6264, "inspired": 4427, "forge": 15681, "prom": 20877, "graduate": 4619, "permanent": 4568, "encoding": 17181, "elsa": 23452, "contain": 5383, "babe": 11561, "harcourt": 22714, "communes": 16569, "derivation": 29280, "daddy": 8600, "wta": 21925, "confessed": 14312, "[unused962]": 967, "gillespie": 21067, "coven": 25248, "unsuccessful": 7736, "35th": 20198, "##nded": 25848, "##ears": 26492, "snuggled": 26867, "slots": 19832, "##sack": 25607, "chevalier": 22019, "knicks": 27817, "department": 2533, "##sities": 24279, "holstein": 18864, "equality": 9945, "##iff": 13355, "mal": 15451, "germain": 19192, "##sos": 17063, "##bo": 5092, "twenty": 3174, "share": 3745, "##child": 19339, "2003": 2494, "erection": 13760, "nationwide": 9053, "tones": 12623, "amalgamated": 17143, "worse": 4788, "##otic": 20214, "purity": 18433, "##ced": 11788, "zip": 14101, "felony": 24648, "stir": 16130, "st": 2358, "##ard": 4232, "collector": 10018, "blitz": 22312, "distillery": 24870, "fin": 10346, "##ators": 18926, "pulmonary": 21908, "##heim": 8049, "rigid": 11841, "\u3081": 1680, "##cina": 28748, "mri": 27011, "joe": 3533, "##ole": 9890, "trailers": 21389, "screening": 11326, "##oder": 27381, "contra": 24528, "joyah": 27098, "##rber": 20473, "iced": 28248, "##aster": 24268, "toys": 10899, "##saka": 29289, "flats": 14201, "monasteries": 15947, "markets": 6089, "hornets": 24855, "##person": 27576, "shift": 5670, "##urt": 19585, "ss": 7020, "gonzaga": 26840, "zaragoza": 25744, "##\u0686": 29840, "mutiny": 19306, "\u00fe": 1101, "ties": 7208, "resolution": 5813, "255": 20637, "##oran": 18842, "sculpted": 19921, "##ong": 5063, "charley": 20430, "quaker": 18844, "creator": 8543, "##haw": 14238, "greece": 5483, "##taken": 25310, "gaulle": 28724, "1638": 27497, "trumpets": 26506, "pod": 17491, "\u03b6": 1160, "mackenzie": 11407, "##isi": 17417, "modifications": 12719, "charming": 11951, "##ju": 9103, "1781": 16788, "jonah": 15617, "##ously": 13453, "explanation": 7526, "olga": 15585, "##ind": 22254, "##rney": 27114, "urdu": 12454, "m3": 29061, "sheriff": 6458, "##lau": 17298, "##bah": 24206, "comparisons": 18539, "tak": 27006, "terrestrial": 12350, "dynamite": 21719, "affair": 6771, "##\u026b": 29686, "resolve": 10663, "##sit": 28032, "tunic": 23002, "josh": 6498, "\u090f": 1314, "braun": 21909, "\u5c1a": 1830, "universities": 5534, "##mun": 23041, "[unused691]": 696, "harmonic": 19452, "lizards": 23898, "\u4ec1": 1758, "influx": 18050, "338": 27908, "bam": 25307, "yielded": 17544, "anime": 8750, "incurred": 22667, "trust": 3404, "hockey": 3873, "mongolian": 17855, "##\ufb02": 30511, "[unused975]": 980, "psychotic": 27756, "hemingway": 27299, "mason": 6701, "points": 2685, "note": 3602, "beckett": 20599, "##icides": 22698, "##oda": 13390, "##rington": 17281, "addict": 26855, "recruits": 15024, "##elo": 18349, "\u02c8": 1149, "##rone": 20793, "[unused951]": 956, "form": 2433, "period": 2558, "westbound": 24717, "chaplain": 14011, "sanity": 20039, "enjoys": 15646, "iss": 26354, "entirely": 4498, "criminal": 4735, "barked": 17554, "hints": 20385, "##erus": 21608, "amended": 13266, "indifferent": 24436, "rift": 16931, "guise": 21980, "engagements": 20583, "whenever": 7188, "##ctive": 15277, "sponsorship": 12026, "notable": 3862, "##les": 4244, "depicting": 10775, "murdered": 7129, "reflect": 8339, "navigate": 22149, "##tama": 28282, "##hang": 18003, "glazed": 19724, "harassed": 28186, "javier": 13824, "optics": 21026, "lastly": 22267, "mistakenly": 20706, "invited": 4778, "theoretically": 22634, "bank": 2924, "wichita": 18614, "##chaft": 29043, "complained": 10865, "mister": 12525, "=": 1027, "winery": 23910, "secured": 7119, "##ehan": 24660, "comparative": 12596, "ringing": 13060, "milo": 20359, "ego": 13059, "##\u2022": 30063, "predominant": 21047, "different": 2367, "shan": 17137, "endure": 18094, "expenses": 11727, "murderer": 13422, "cure": 9526, "start": 2707, "retained": 6025, "month": 3204, "[unused84]": 85, "geological": 9843, "##vot": 22994, "distraught": 25348, "411": 27517, "reese": 15883, "least": 2560, "doha": 26528, "philadelphia": 4407, "estimate": 10197, "[unused118]": 123, "##oja": 22918, "\u0283": 1130, "constitutes": 17367, "fusion": 10077, "mrna": 28848, "verbal": 12064, "libyan": 19232, "commentators": 15957, "fishes": 21995, "messages": 7696, "\u5bb6": 1825, "seed": 6534, "highland": 10983, "condom": 20910, "##lino": 25226, "##oney": 17791, "abby": 9460, "artificial": 7976, "cara": 14418, "500": 3156, "hygiene": 19548, "extended": 3668, "diameter": 6705, "##gpur": 25758, "##iac": 20469, "\u1d58": 1506, "bases": 7888, "alf": 24493, "##boro": 12691, "##q": 4160, "proprietary": 16350, "pile": 8632, "exclusively": 7580, "autobiography": 10828, "\u82f1": 1941, "rules": 3513, "logo": 8154, "ian": 4775, "##erik": 27350, "ode": 24040, "normal": 3671, "keynote": 25569, "nestor": 25397, "1854": 8421, "qi": 18816, "##cous": 27199, "professors": 12655, "\u02e1": 1151, "giggles": 26466, "##\u110c": 30000, "rays": 9938, "craving": 26369, "hydroelectric": 18541, "1680": 24621, "fisherman": 19949, "##thi": 15222, "jana": 23341, "ribs": 10335, "monumental": 15447, "ramsey": 15092, "feels": 5683, "##plify": 28250, "pedro": 7707, "wexford": 23121, "june": 2238, "priced": 21125, "housing": 3847, "nagoya": 24425, "[unused688]": 693, "crashed": 8007, "see": 2156, "[unused664]": 669, "[unused501]": 506, "1629": 27882, "pure": 5760, "revenue": 6599, "brooke": 11535, "##urst": 29402, "##via": 9035, "repeated": 5567, "devoted": 7422, "autopsy": 24534, "negligence": 27988, "lectures": 8921, "[unused157]": 162, "##\u2030": 30065, "brandenburg": 16426, "topped": 9370, "bundles": 26825, "fuel": 4762, "##\u5409": 30319, "alvin": 17348, "subcommittee": 18052, "210": 12875, "archbishop": 6507, "dances": 11278, "peg": 25039, "breach": 12510, "own": 2219, "psi": 17816, "##tling": 15073, "satan": 16795, "absently": 21284, "herr": 23506, "camden": 13267, "generation": 4245, "\u0634": 1283, "slits": 29199, "battle": 2645, "##khar": 22510, "sturdy": 23073, "aqua": 28319, "familiarity": 24666, "##ng": 3070, "wine": 4511, "funny": 6057, "foo": 29379, "subsequently": 3525, "##dur": 24979, "##ume": 17897, "blonde": 9081, "paving": 28007, "fled": 6783, "timer": 25309, "1750": 18171, "##\\": 29635, "kiara": 28870, "##ifiers": 28295, "1625": 26263, "recipients": 15991, "govern": 21208, "reside": 13960, "1648": 22533, "random": 6721, "##ingen": 15542, "want": 2215, "embodied": 25405, "[PAD]": 0, "##bridge": 6374, "odor": 19255, "medallion": 22541, "fabrics": 25123, "##cate": 16280, "packaged": 21972, "build": 3857, "332": 29327, "##rok": 27923, "restrictive": 25986, "analyst": 12941, "##ler": 3917, "poznan": 18320, "status": 3570, "##phy": 21281, "jack": 2990, "##eem": 21564, "##mbled": 23931, "##gil": 20142, "1794": 13199, "discourse": 15152, "spacecraft": 12076, "october": 2255, "suggestions": 15690, "##aus": 20559, "spending": 5938, "traditionally": 6964, "colts": 14390, "ignatius": 26841, "economies": 18730, "##\u0985": 29883, "ache": 12336, "radiant": 23751, "nairobi": 21124, "catches": 11269, "artists": 3324, "##pile": 22090, "tower": 3578, "ventures": 13252, "prussia": 10724, "\uff0e": 1991, "compelling": 17075, "inventory": 12612, "insults": 23862, "parent": 6687, "parameter": 16381, "##mma": 14760, "buddy": 8937, "stage": 2754, "total": 2561, "flora": 10088, "gia": 27699, "dominated": 6817, "canoe": 14347, "incarcerated": 23995, "survivor": 12084, "flooded": 10361, "radically": 25796, "##aria": 10980, "##bine": 16765, "beale": 28371, "pitchfork": 22355, "potentially": 9280, "fern": 20863, "##point": 8400, "fiji": 11464, "cradled": 23774, "1737": 26738, "rabbits": 20403, "##rer": 14544, "180": 8380, "maddox": 22730, "opera": 3850, "##apes": 29040, "##kel": 11705, "eleanor": 10508, "interned": 26345, "shetland": 25552, "lancashire": 9638, "reforms": 8818, "##ieu": 17301, "##vd": 16872, "dolores": 21544, "councillors": 13189, "authenticity": 21452, "vineyard": 18621, "tempting": 23421, "processor": 13151, "##lim": 17960, "concerto": 10405, "nation": 3842, "##\u00a6": 29649, "##rified": 22618, "tens": 15295, "##\u0937": 29873, "ultimatum": 29227, "canton": 8770, "##pathic": 25940, "plumage": 28764, "##tina": 13770, "##gm": 21693, "partner": 4256, "##ort": 11589, "harding": 15456, "[unused836]": 841, "##xt": 18413, "colloquially": 23992, "par": 11968, "gaping": 21226, "crore": 21665, "burton": 9658, "armed": 4273, "##mot": 18938, "records": 2636, "bumper": 21519, "developed": 2764, "appetite": 18923, "submerged": 13563, "c2": 29248, "label": 3830, "##rium": 18802, "gleamed": 25224, "lots": 7167, "##kala": 26907, "surroundings": 11301, "goal": 3125, "analogue": 21800, "crisp": 15594, "##\u0436": 29743, "nippon": 19364, "struggled": 6915, "austrian": 6161, "river": 2314, "firefighters": 21767, "mysterious": 8075, "arithmetic": 20204, "drone": 18465, "israelis": 28363, "fired": 5045, "ipa": 24531, "clans": 16411, "erase": 22505, "groves": 21695, "bands": 4996, "rhys": 13919, "kick": 5926, "davidson": 12017, "worm": 15485, "##wash": 28556, "##yr": 12541, "shadows": 6281, "journals": 9263, "##j": 3501, "palmer": 8809, "chancel": 16482, "##venor": 26806, "shortstop": 25359, "really": 2428, "##asi": 21369, "archibald": 15917, "jens": 25093, "fulfilled": 16829, "##cco": 21408, "stupidity": 28072, "##loh": 24729, "fixing": 15887, "##lene": 11474, "diminished": 15911, "landfall": 21042, "payroll": 26854, "lydia": 14076, "dread": 14436, "tricked": 24929, "mic": 23025, "##\u00ae": 29656, "[unused746]": 751, "album": 2201, "collins": 6868, "crow": 11465, "allan": 8926, "recipe": 17974, "##cule": 21225, "##uid": 21272, "fluent": 19376, "samantha": 11415, "malvern": 28082, "arises": 18653, "dodd": 21258, "##th": 2705, "rink": 18416, "reformed": 9114, "consumers": 10390, "ce": 8292, "valentine": 10113, "elders": 13376, "possibilities": 12020, "philippe": 11169, "lists": 7201, "##bola": 24290, "cade": 18615, "reluctance": 21662, "lenny": 19065, "profoundly": 28089, "proportional": 14267, "stimulation": 20858, "##vant": 18941, "cumbria": 25559, "steal": 8954, "\u9577": 1967, "asleep": 6680, "bastards": 21123, "song": 2299, "uprising": 10138, "nunez": 28454, "dusk": 18406, "swimmers": 21669, "missiles": 10815, "take": 2202, "liberation": 7931, "##ja": 3900, "walker": 5232, "224": 19711, "panel": 5997, "organizing": 10863, "##mour": 20360, "sindh": 20284, "convicted": 7979, "nana": 17810, "joy": 6569, "mermaid": 22322, "bukit": 29007, "husbands": 19089, "romero": 18290, "tuning": 17372, "##row": 10524, "colonial": 5336, "[unused604]": 609, "stunned": 9860, "roommate": 18328, "##mian": 20924, "counts": 9294, "590": 25186, "studios": 4835, "ham": 10654, "##eca": 19281, "responsible": 3625, "##yria": 20379, "bang": 9748, "covering": 5266, "blinded": 20641, "sentence": 6251, "\u05da": 1251, "[unused400]": 405, "##sho": 22231, "##sto": 16033, "jai": 17410, "##fus": 25608, "##wani": 29092, "[unused130]": 135, "heinrich": 10952, "private": 2797, "[unused370]": 375, "##\u091f": 29856, "invaders": 17347, "hope": 3246, "seen": 2464, "wendell": 24526, "wrestled": 20615, "blankly": 26344, "inclusion": 10502, "##pee": 28084, "##geny": 17487, "##\u22c5": 30141, "alcohol": 6544, "chelsea": 9295, "defenses": 13345, "eldest": 7310, "panthers": 12915, "ru": 21766, "##rasia": 27839, "\u2021": 1527, "550": 13274, "fell": 3062, "195": 17317, "answering": 10739, "[unused750]": 755, "##jia": 26541, "bangladeshi": 24267, "mud": 8494, "illumination": 21203, "sufficient": 7182, "##ub": 12083, "bravery": 16534, "rashid": 22080, "hooked": 13322, "yuan": 11237, "keeper": 10684, "giggling": 21783, "##gers": 15776, "army": 2390, "durban": 25040, "obsessed": 15896, "##jan": 8405, "consciously": 24447, "suck": 11891, "actually": 2941, "canada": 2710, "port": 3417, "##gler": 17420, "1881": 7005, "focal": 15918, "council": 2473, "##ciency": 29125, "carmen": 11425, "horticultural": 26235, "centered": 8857, "braced": 15515, "adultery": 29169, "alpine": 10348, "##dae": 6858, "90s": 17233, "##yes": 23147, "19": 2539, "gi": 21025, "agreed": 3530, "polished": 12853, "trench": 14185, "##promising": 25013, "policies": 6043, "denying": 16039, "lick": 15385, "duel": 14216, "rumours": 19200, "eurovision": 12714, "hanover": 14393, "##orro": 29459, "af": 21358, "##wd": 21724, "lucinda": 28261, "154": 16666, "sinatra": 19643, "cones": 23825, "t": 1056, "##mont": 9629, "fortunes": 18023, "efficiency": 8122, "factories": 11123, "reforming": 29455, "fox": 4419, "music": 2189, "iqbal": 28111, "serie": 8668, "weekend": 5353, "third": 2353, "slayer": 20005, "mckinley": 22121, "engined": 21235, "##inger": 9912, "sexually": 12581, "##bour": 25127, "##\u5b80": 30344, "##fest": 14081, "photon": 26383, "##\u0e27": 29955, "delgado": 26532, "av": 20704, "##otto": 23052, "labyrinth": 24239, "waits": 18074, "##rned": 21119, "cleaned": 12176, "1609": 28058, "[unused145]": 150, "##ising": 9355, "teasing": 12216, "employees": 5126, "\u10d5": 1443, "nights": 6385, "chained": 22075, "##ndon": 19333, "\u2086": 1553, "va": 12436, "plunge": 25912, "industrial": 3919, "bonfire": 28698, "affect": 7461, "heap": 16721, "botanist": 17098, "\u043f": 1194, "##vus": 27500, "helena": 10269, "call": 2655, "##\u548c": 30322, "##git": 23806, "haunted": 11171, "bald": 13852, "##test": 22199, "translations": 11913, "kemp": 20441, "bodies": 4230, "heavens": 17223, "fined": 16981, "races": 3837, "consolidation": 17439, "43rd": 25747, "device": 5080, "bruised": 18618, "saga": 12312, "yank": 23178, "kahn": 19361, "descendants": 8481, "##ulata": 18060, "saliva": 26308, "holden": 9988, "defect": 21262, "##cia": 7405, "##ipes": 28108, "##als": 9777, "##ky": 4801, "restoring": 16487, "xiao": 19523, "gustavo": 24801, "magazine": 2932, "colours": 8604, "marlborough": 22830, "mayoral": 23578, "##hy": 10536, "defendant": 13474, "distract": 15886, "steering": 9602, "##\u897f": 30473, "illusion": 12492, "##ea": 5243, "nomenclature": 23718, "[unused569]": 574, "agent": 4005, "##une": 9816, "afghan": 12632, "sells": 15187, "dino": 22412, "retorted": 24056, "fable": 28458, "racecourse": 15948, "municipalities": 7602, "recruit": 13024, "##how": 14406, "smith": 3044, "##dya": 25838, "focusing": 7995, "christie": 13144, "##\u09b9": 29913, "##tension": 29048, "##islav": 19834, "scrubbed": 27820, "[unused734]": 739, "\u20a4": 1572, "1927": 4764, "bust": 13950, "downed": 20164, "tweed": 26922, "squash": 18794, "moscow": 4924, "emblem": 16199, "boundary": 6192, "libby": 19533, "cathy": 18305, "plants": 4264, "##zbek": 28733, "\u3059": 1658, "manned": 15371, "##ball": 7384, "peacock": 18931, "##backs": 12221, "straps": 19702, "locked": 5299, "disturb": 22995, "rm": 28549, "hear": 2963, "circuit": 4984, "dade": 27647, "originates": 16896, "sinks": 23462, "##box": 8758, "entrusted": 18011, "association": 2523, "individuals": 3633, "absurd": 18691, "geographic": 9183, "dutch": 3803, "leach": 24520, "1649": 26538, "amounts": 8310, "warped": 25618, "##ssar": 25556, "mathematics": 5597, "es": 9686, "metadata": 27425, "honneur": 28197, "alfredo": 19423, "tradition": 4535, "international": 2248, "##\u0989": 29886, "insect": 14211, "excavations": 14018, "##rrard": 29599, "##\u207f": 30080, "##\u043e\u0432\u0438\u0447": 16198, "siemens": 22108, "dragoons": 28069, "parents": 3008, "stretches": 14082, "##\u00b3": 18107, "pieter": 23759, "##chio": 23584, "##frame": 15643, "preschool": 23655, "andrew": 4080, "##ovsky": 21983, "##olate": 19425, "eel": 24315, "serious": 3809, "\u0987": 1349, "##vr": 19716, "lack": 3768, "##ils": 12146, "##mare": 24376, "shaking": 5513, "veto": 22102, "syn": 19962, "galen": 21062, "possess": 10295, "hector": 10590, "[unused172]": 177, "after": 2044, "vertical": 7471, "loneliness": 20334, "litre": 16812, "crowded": 10789, "malaya": 19979, "gloria": 10778, "##liner": 20660, "##oza": 25036, "188": 19121, "yanking": 25716, "milford": 22622, "meritorious": 22053, "enclosure": 17539, "swollen": 13408, "zhu": 15503, "allegiance": 14588, "##von": 17789, "willie": 9893, "specify": 20648, "[unused698]": 703, "skinned": 19937, "rye": 20926, "eastbound": 24773, "bs": 18667, "mattress": 13342, "[unused411]": 416, "[unused902]": 907, "stumble": 21811, "##omics": 25524, "dancer": 8033, "##osed": 24768, "deacon": 14845, "\u10d7": 1444, "##rew": 15603, "##not": 17048, "precision": 11718, "knife": 5442, "usd": 13751, "##sb": 19022, "aunt": 5916, "observed": 5159, "virginity": 26970, "headlights": 18167, "medicare": 27615, "\u0643": 1293, "straits": 18849, "\u05df": 1256, "##\u05e2": 29805, "bug": 11829, "hierarchical": 25835, "##\u00d7": 26306, "addressing": 12786, "outlawed": 29131, "persian": 4723, "\u2092": 1562, "[unused299]": 304, "nightmare": 10103, "brake": 13428, "realized": 3651, "lithium": 22157, "francoise": 28979, "furnished": 19851, "thong": 27468, "aragon": 16146, "cooper": 6201, "calvert": 24800, "batting": 9640, "\u0996": 1354, "##hn": 7295, "printed": 6267, "##za": 4143, "03": 6021, "##sts": 12837, "##rane": 18053, "ineffective": 20694, "\u30ea": 1732, "dora": 21008, "speakers": 7492, "schooner": 21567, "##tage": 26702, "photographs": 7008, "freely": 10350, "keating": 25865, "skye": 16590, "ripped": 9157, "juveniles": 25406, "pneumonia": 18583, "\u06ba": 1306, "mckenna": 21749, "##\u266f": 30154, "fries": 22201, "cleaning": 9344, "##\u56d7": 30323, "##dian": 11692, "stables": 16232, "topical": 25665, "##glia": 20011, "clifton": 16271, "appliances": 22449, "##osta": 28696, "automated": 12978, "?": 1029, "wrenched": 26971, "bwf": 21215, "rape": 9040, "largely": 4321, "plagued": 17808, "converting": 16401, "##put": 18780, "##eron": 26534, "##ads": 19303, "differences": 5966, "lowering": 13845, "penned": 17430, "wander": 17677, "shades": 13178, "instincts": 16160, "gems": 20296, "http": 8299, "stafford": 15064, "afrikaans": 28673, "wrecked": 18480, "patriarch": 12626, "bench": 6847, "grammy": 8922, "viceroy": 19007, "algae": 18670, "ioc": 25941, "ensembles": 21528, "layne": 22452, "soils": 13622, "##gger": 13327, "[unused916]": 921, "anastasia": 19447, "teenager": 10563, "\u02bb": 1145, "turquoise": 28653, "sustained": 8760, "timely": 23259, "drunk": 7144, "disagreed": 18335, "\u0641": 1291, "carpathian": 26349, "##um": 2819, "limp": 14401, "don": 2123, "##free": 23301, "piedmont": 18873, "vlad": 19163, "taboo": 27505, "fool": 7966, "carnival": 11485, "turrets": 21088, "##ssa": 11488, "scraped": 20378, "gills": 29468, "hot": 2980, "tractor": 16358, "imported": 10964, "kamen": 22099, "oklahoma": 5858, "1652": 28853, "capturing": 11847, "deposits": 10042, "doug": 8788, "au": 8740, "anglo": 7819, "##cens": 19023, "##grave": 12830, "##\u0279": 29691, "##flow": 12314, "nanjing": 21455, "solos": 24339, "##lev": 20414, "suspect": 8343, "sousa": 28535, "replaced": 2999, "embassy": 8408, "standards": 4781, "##\u2660": 30150, "##lford": 23211, "##mada": 23574, "##500": 29345, "denmark": 5842, "its": 2049, "intern": 25204, "jess": 12245, "rapid": 5915, "haiti": 12867, "chrome": 18546, "falling": 4634, "blasting": 26239, "##imating": 22835, "##mia": 10092, "jp": 16545, "childish": 24282, "disease": 4295, "adversary": 27248, "countered": 17970, "provision": 9347, "##\u0431": 29740, "tree": 3392, "##bella": 21700, "oversaw": 14105, "eggs": 6763, "viewing": 10523, "evidently": 15329, "deciduous": 22411, "grenades": 21914, "clustered": 25221, "cm": 4642, "##rika": 23778, "##eres": 18702, "three": 2093, "##\u2228": 30130, "equations": 11380, "##drick": 24092, "conviction": 10652, "65": 3515, "[unused12]": 13, "rave": 23289, "##ida": 8524, "vermont": 8839, "##enberg": 11029, "eve": 6574, "mounted": 5614, "reorganization": 17118, "##aldo": 27318, "##42": 20958, "become": 2468, "arousal": 18905, "fairness": 26935, "feather": 15550, "cock": 10338, "colton": 21000, "lang": 11374, "photography": 5855, "one": 2028, "weeping": 19750, "monograph": 24039, "silenced": 25030, "gracie": 19005, "bag": 4524, "rna": 12987, "ravine": 23188, "\u201a": 1522, "cycles": 12709, "entrepreneur": 10670, "##die": 10265, "credibility": 21553, "charge": 3715, "colombo": 16224, "bloomington": 26372, "labour": 4428, "vibrations": 22755, "mortally": 26495, "confirmed": 4484, "##lta": 24458, "rann": 26312, "mets": 15253, "obligation": 14987, "##psis": 18409, "satisfied": 8510, "societal": 23382, "crewe": 22188, "liszt": 26273, "##\u03bc": 29728, "##dice": 24598, "methodology": 16134, "##\u4fe1": 30293, "##ired": 27559, "bitter": 8618, "defining": 12854, "domingo": 15586, "[unused989]": 994, "energies": 19320, "##formed": 29021, "tyne": 17742, "european": 2647, "identifiable": 27800, "shutter": 28180, "lo": 8840, "[unused110]": 115, "##tery": 20902, "[unused175]": 180, "[unused616]": 621, "[unused233]": 238, "cartridge": 15110, "##mology": 20570, "overlook": 27590, "homes": 5014, "##\u305d": 30186, "cervical": 28711, "##\u25a0": 30144, "schumacher": 22253, "slaves": 7179, "foxes": 24623, "##eyer": 20211, "[unused357]": 362, "facto": 13743, "faux": 29276, "refined": 15514, "tate": 9902, "destination": 7688, "junction": 5098, "dana": 11271, "sasha": 14673, "laurence": 10883, "nailed": 26304, "moat": 25266, "##vera": 26061, "artefacts": 25762, "##color": 18717, "##\u0e2d": 29957, "brewer": 18710, "nape": 23634, "shawn": 13218, "step": 3357, "denoted": 19537, "commence": 22825, "##dly": 18718, "suspiciously": 21501, "##\u090f": 29850, "ached": 15043, "deemed": 8357, "gains": 12154, "pacific": 3534, "##ndi": 16089, "obey": 15470, "naturally": 8100, "##\u0127": 29672, "buffet": 28305, "thug": 26599, "sweeps": 26981, "presbyterian": 10133, "archaic": 19261, "\u0b9f": 1384, "##\u1d30": 30028, "auburn": 12704, "tensions": 13136, "##dles": 27822, "training": 2731, "[unused9]": 10, "applications": 5097, "savanna": 22323, "blanco": 20036, "taekwondo": 28529, "angrily": 14136, "pentagon": 20864, "vertically": 20018, "flotilla": 17150, "northamptonshire": 21367, "portfolio": 11103, "platinum": 8899, "[unused408]": 413, "1761": 21364, "residents": 3901, "mackay": 17090, "resurrection": 15218, "brad": 8226, "cross": 2892, "neat": 15708, "brian": 4422, "##icide": 21752, "axe": 12946, "pop": 3769, "reliability": 15258, "henrietta": 20775, "##puram": 17809, "accidentally": 9554, "neighborhoods": 11681, "tier": 7563, "##gement": 20511, "##far": 14971, "acquainted": 19056, "lifetime": 6480, "looks": 3504, "247": 23380, "assignments": 14799, "##dini": 26039, "explodes": 27583, "reconnaissance": 8967, "uhf": 20131, "critics": 4401, "closely": 4876, "##tock": 17406, "##vna": 29207, "populated": 10357, "##sund": 25168, "learned": 4342, "householder": 7536, "erica": 19295, "\u30bb": 1708, "sequences": 10071, "muse": 18437, "stripes": 13560, "craig": 7010, "1968": 3380, "##lift": 18412, "##rien": 23144, "decommissioned": 14394, "bears": 6468, "computers": 7588, "##bri": 23736, "##ha": 3270, "messed": 18358, "##gaon": 27073, "gazed": 11114, "coconut": 16027, "amend": 27950, "##cht": 10143, "shifter": 18189, "demanded": 6303, "condensed": 25011, "ruin": 10083, "drifted": 10070, "felt": 2371, "bell": 4330, "##uttered": 23128, "exports": 14338, "##oy": 6977, "lance": 9993, "realizes": 10919, "bing": 17620, "can": 2064, "shi": 11895, "sanctioned": 14755, "jock": 23407, "##\u0ba9": 29923, "1993": 2857, "\u266d": 1627, "viewer": 13972, "uruguayan": 23464, "##slow": 26338, "reliable": 10539, "jang": 23769, "mourning": 16236, "then": 2059, "##ini": 5498, "fronts": 21430, "gotham": 22814, "marissa": 22767, "##roids": 29514, "##bber": 29325, "millionaire": 19965, "receiver": 8393, "dunlop": 27458, "finn": 9303, "212": 18164, "finalist": 9914, "interested": 4699, "##\u0274": 29690, "1980": 3150, "drills": 28308, "##bolt": 22803, "bash": 24234, "motorsports": 20711, "##\u2193": 30114, "[unused527]": 532, "baptiste": 17329, "miss": 3335, "##zam": 20722, "causes": 5320, "##\u99ac": 30506, "inadequate": 14710, "gloss": 27068, "angel": 4850, "him": 2032, "guido": 20239, "##pal": 12952, "prefix": 17576, "harbor": 6496, "drama": 3689, "jumping": 8660, "adventure": 6172, "listen": 4952, "##shaw": 17980, "contributions": 5857, "##keepers": 24764, "combination": 5257, "mystical": 17529, "shenzhen": 26555, "homage": 14822, "select": 7276, "defeating": 6324, "ideas": 4784, "theologians": 29013, "[unused445]": 450, "blended": 19803, "signatures": 16442, "tremble": 20627, "brigadier": 9900, "[unused576]": 581, "##book": 8654, "throne": 6106, "\u30a2": 1693, "[unused187]": 192, "salvador": 10582, "deluxe": 15203, "##ados": 28118, "##nable": 22966, "automation": 19309, "##lewood": 26580, "##lative": 26255, "bernstein": 18862, "##zh": 27922, "representatives": 4505, "ollie": 25208, "rebel": 8443, "mates": 14711, "called": 2170, "possession": 6664, "stove": 16247, "ricardo": 13559, "##\ufb01": 30510, "\u516b": 1771, "seemed": 2790, "renault": 14605, "metz": 24424, "resume": 13746, "mango": 24792, "lake": 2697, "##lusion": 24117, "##unciation": 24101, "emphasized": 13155, "governing": 8677, "##hl": 7317, "pamela": 17217, "sliced": 15920, "hotter": 22302, "latest": 6745, "spaniards": 20999, "saturated": 23489, "##itia": 29050, "##\u00b6": 29660, "kanye": 29270, "scarlett": 20862, "\u9ad8": 1981, "spurs": 18205, "wanna": 10587, "[unused462]": 467, "kirby": 15129, "1801": 12410, "##balance": 26657, "madame": 10602, "commemoration": 22377, "##\u06c1": 29845, "iaaf": 21259, "shipping": 7829, "1650": 21875, "napoli": 29485, "gloucestershire": 15905, "deed": 15046, "claudius": 25017, "[unused33]": 34, "chefs": 27828, "abducted": 20361, "cannabis": 17985, "##sin": 11493, "##sat": 16846, "maps": 7341, "coaches": 7850, "madonna": 11284, "shapiro": 24630, "disciplines": 12736, "dialed": 21300, "100": 2531, "##charged": 22620, "aires": 9149, "locomotives": 7830, "westminster": 9434, "generates": 19421, "vincent": 6320, "exiled": 14146, "biggest": 5221, "320": 13710, "recommends": 26021, "penetration": 20015, "overtime": 12253, "outgoing": 22011, "bye": 9061, "##yx": 17275, "harlow": 22545, "verlag": 14552, "kenya": 7938, "homer": 11525, "anticipation": 11162, "favors": 21191, "##week": 28075, "finishes": 12321, "##ta": 2696, "yellowish": 17804, "nehru": 23556, "##\u79be": 30453, "##rick": 11285, "##nni": 23500, "despised": 26626, "handicap": 15822, "fabio": 25616, "shook": 3184, "##jian": 27685, "hawaii": 7359, "hypnotic": 28322, "canadian": 3010, "unicef": 29073, "macbeth": 25182, "text": 3793, "smarter": 25670, "instruments": 5693, "directs": 23303, "##rdo": 20683, "ipad": 25249, "dc": 5887, "resigned": 5295, "##oed": 29099, "collapse": 7859, "ge": 16216, "##gren": 13565, "1683": 27414, "cameron": 7232, "deutschland": 28668, "favorable": 11119, "benign": 28378, "##hos": 15006, "offender": 25042, "palaces": 22763, "robson": 23698, "stock": 4518, "stated": 3090, "battery": 6046, "##kou": 24861, "protects": 18227, "voices": 5755, "##rdi": 17080, "lodge": 7410, "##iating": 15370, "syndicate": 16229, "undisclosed": 18206, "forks": 19896, "harvard": 5765, "teacher": 3836, "caressing": 25296, "clark": 5215, "germanic": 15139, "##in": 2378, "necessity": 13185, "pending": 14223, "targeting": 14126, "fresno": 20840, "rome": 4199, "diving": 9404, "employ": 12666, "bore": 8501, "downward": 14047, "##\u3001": 30161, "irritated": 15560, "inference": 28937, "geese": 28519, "balfour": 27560, "athletes": 7576, "[unused970]": 975, "[unused587]": 592, "barefoot": 22985, "maple": 11035, "266": 25162, "handgun": 28497, "wedge": 17632, "upbeat": 27999, "##23": 21926, "[unused947]": 952, "sacramento": 11932, "liv": 22135, "melvin": 20993, "explorers": 19264, "investigates": 28062, "young": 2402, "##cian": 14483, "susceptible": 18002, "torque": 15894, "relegated": 7049, "decade": 5476, "rebirth": 22785, "croft": 28983, "undrafted": 21347, "tyres": 24656, "##emia": 17577, "##utter": 26878, "##\u0627": 25573, "333": 21211, "paralysis": 26287, "redesignated": 11836, "[unused562]": 567, "worn": 6247, "clearance": 14860, "[unused881]": 886, "1790": 13393, "skirt": 9764, "conquer": 16152, "gruff": 27038, "##isson": 24077, "exchanging": 25620, "##del": 9247, "salvation": 12611, "betty": 9306, "wise": 7968, "din": 11586, "##kley": 22315, "189": 20500, "secretly": 10082, "easier": 6082, "hiding": 6318, "##wheel": 22920, "mere": 8210, "malaysia": 6027, "row": 5216, "[unused927]": 932, "##ios": 10735, "reservoir": 8071, "folklore": 13104, "pines": 17527, "belfast": 10330, "widely": 4235, "confidence": 7023, "caspian": 25893, "finley": 29194, "kinetic": 20504, "##pu": 14289, "00": 4002, "constituency": 5540, "napier": 21320, "reduced": 4359, "bathroom": 5723, "##rained": 27361, "rectory": 24606, "retiring": 9150, "##85": 27531, "##bund": 27265, "luna": 12909, "leigh": 11797, "##\u0456": 29760, "\u6bd4": 1890, "\u671d": 1874, "judah": 23022, "fragile": 13072, "shareholders": 15337, "1620": 24259, "capacities": 21157, "[unused555]": 560, "strong": 2844, "1951": 4131, "kilograms": 18857, "gertrude": 18734, "swearing": 25082, "##ption": 16790, "catfish": 23723, "seamen": 28671, "sounds": 4165, "unsigned": 27121, "boundaries": 7372, "##illy": 20577, "swell": 18370, "massive": 5294, "hertfordshire": 18889, "##oor": 16506, "privatization": 23966, "carpets": 27997, "##\u03c4": 29734, "14th": 6400, "localities": 19664, "disappearance": 13406, "crumpled": 19814, "##jit": 18902, "dow": 23268, "[unused103]": 108, "##\u77f3": 30448, "219": 20636, "soup": 11350, "electron": 10496, "winkler": 20472, "##parts": 26950, "aristotle": 17484, "manpower": 22039, "marine": 3884, "natal": 17489, "cambodia": 12899, "##sell": 23836, "hoc": 21929, "##bson": 27355, "congratulations": 23156, "stylistic": 24828, "awful": 9643, "nancy": 7912, "screamed": 7210, "withdraw": 10632, "[unused852]": 857, "islanders": 16422, "hunting": 5933, "\u5b87": 1819, "men": 2273, "ibm": 9980, "ruben": 19469, "terminal": 5536, "merrill": 16239, "plastic": 6081, "ascended": 19644, "kiel": 20963, "fifteen": 5417, "simon": 4079, "motive": 15793, "giovanni": 9136, "simulations": 24710, "paranoia": 27890, "scranton": 26123, "chance": 3382, "accolades": 27447, "node": 13045, "injuring": 22736, "provincial": 4992, "robinson": 6157, "pseudo": 18404, "slap": 14308, "darkly": 27148, "interrupt": 17938, "tatiana": 22725, "##bles": 13510, "damn": 4365, "arabian": 13771, "##ees": 10285, "##tead": 14565, "bodo": 28137, "huntsville": 28492, "smuggling": 19535, "rune": 23276, "##rso": 25301, "landlord": 18196, "salim": 27490, "liberties": 18271, "goin": 17249, "dictator": 21237, "##elis": 29282, "crashing": 12894, "heroism": 27117, "[unused373]": 378, "##\u57ce": 30330, "1626": 28818, "##ques": 10997, "rankings": 10385, "cavaliers": 25096, "stool": 14708, "smirked": 18775, "[unused188]": 193, "wounds": 8710, "entries": 10445, "[unused765]": 770, "greenville": 20967, "##ule": 9307, "welsh": 6124, "humble": 15716, "depart": 18280, "oakland": 9182, "clara": 10254, "prompting": 15870, "jonas": 10680, "reddish": 14182, "##\u0940": 29878, "whitehead": 23257, "geraldine": 26987, "magical": 8687, "buildings": 3121, "[unused241]": 246, "heading": 5825, "park": 2380, "marlene": 26921, "mesopotamia": 25889, "timber": 7227, "mei": 19734, "phd": 8065, "product": 4031, "loosely": 11853, "hind": 17666, "dowager": 20508, "capt": 14408, "uttered": 20947, "procurement": 21423, "##der": 4063, "roi": 25223, "fair": 4189, "gaines": 28645, "##ddled": 28090, "guerrero": 16938, "rum": 19379, "emilio": 18644, "sherwood": 19427, "catastrophe": 25539, "apex": 13450, "attribute": 17961, "sheldon": 19369, "detected": 11156, "darkening": 27862, "45": 3429, "inaugural": 7725, "rios": 25836, "barriers": 13500, "intuition": 26406, "estimation": 24155, "immediately": 3202, "raped": 15504, "raced": 8255, "##lining": 16992, "predictions": 20932, "wesleyan": 19858, "venue": 6891, "##da": 2850, "##lda": 15150, "tiffany": 14381, "##\u091c": 29855, "customs": 8205, "##tase": 18260, "fried": 13017, "\u5408": 1792, "investigative": 15025, "moniker": 21937, "mayfield": 27224, "hanson": 17179, "entertained": 21474, "\u2033": 1532, "##ku": 5283, "sevilla": 29363, "##\u2500": 30142, "towards": 2875, "##ions": 8496, "rejected": 5837, "15": 2321, "guillaume": 20061, "handles": 16024, "damon": 11317, "33rd": 20883, "\"": 1000, "##itive": 13043, "belize": 18867, "teaching": 4252, "moving": 3048, "layton": 23103, "carol": 8594, "prototype": 8773, "##tary": 18219, "[unused240]": 245, "##gul": 24848, "showers": 23442, "vacancy": 15619, "extensive": 4866, "proliferation": 20250, "madeleine": 19324, "tonic": 28157, "hauling": 23113, "\u09b6": 1374, "alzheimer": 21901, "fixed": 4964, "duff": 21019, "escapes": 12976, "batsman": 13953, "bingham": 24579, "petitioned": 22527, "1640": 21533, "sooner": 10076, "upgraded": 9725, "##tic": 4588, "annie": 8194, "electric": 3751, "crank": 27987, "aluminum": 13061, "isles": 14195, "pastry": 27060, "albeit": 12167, "[unused699]": 704, "executed": 6472, "newark": 12948, "trough": 23389, "williamsburg": 26366, "dockyard": 24874, "rotherham": 27456, "loving": 8295, "clary": 13145, "lucrative": 21115, "argues": 9251, "##miya": 29312, "greedy": 20505, "grid": 8370, "##bbly": 24200, "##med": 7583, "pointless": 23100, "1784": 16496, "lam": 16983, "carvings": 22838, "157": 17403, "licking": 17033, "##vary": 21639, "populations": 7080, "##nus": 10182, "rescues": 26001, "bathed": 24614, "commentaries": 21241, "much": 2172, "##pathy": 20166, "mast": 15429, "multimedia": 14959, "gdp": 14230, "##rga": 28921, "##fo": 14876, "drank": 10749, "##phone": 9864, "disadvantaged": 27322, "boarding": 9405, "\u9580": 1968, "adviser": 11747, "frames": 11048, "273": 25371, "permit": 9146, "dynamo": 17205, "closed": 2701, "suites": 19796, "terri": 26568, "deny": 9772, "libertadores": 27968, "posture": 16819, "treatments": 13441, "ned": 12311, "spine": 8560, "ultrasound": 27312, "\u062d": 1276, "rib": 19395, "hotspur": 25985, "flower": 6546, "ozone": 26443, "level": 2504, "tires": 13310, "disguise": 14249, "example": 2742, "##ffer": 12494, "benin": 21164, "outdoors": 19350, "##izations": 22318, "inform": 12367, "wickets": 10370, "expeditionary": 15372, "bjorn": 24998, "##\u7acb": 30457, "lissa": 20244, "00pm": 27995, "##enstein": 21819, "hymns": 17777, "##cellular": 16882, "##el": 2884, "noticeable": 17725, "philharmonic": 12355, "nz": 20008, "##al": 2389, "equation": 8522, "reconstructed": 14858, "serena": 14419, "noon": 11501, "##ove": 21818, "dragon": 5202, "sparked": 13977, "robyn": 28047, "bobbed": 29579, "hissed": 11402, "jian": 29214, "hated": 6283, "hormones": 20752, "minute": 3371, "##be": 4783, "jessie": 10934, "debuts": 26740, "contacts": 10402, "scenes": 5019, "##\u5bb6": 30351, "her": 2014, "perpetual": 18870, "\u0e15": 1411, "chad": 9796, "sided": 11536, "night": 2305, "championship": 2528, "os": 9808, "##ometric": 28993, "tennis": 5093, "cornerstone": 23354, "[unused443]": 448, "douglass": 27485, "##\u6c37": 30421, "asean": 27974, "flaw": 28450, "philanthropic": 25321, "surveillance": 9867, "##eet": 15558, "elliot": 11759, "excess": 9987, "testify": 19919, "##sitor": 28307, "tunnels": 10633, "##oche": 23555, "evans": 6473, "buchanan": 14349, "apocalypse": 16976, "\u0438": 1188, "table": 2795, "shang": 29382, "govt": 22410, "[unused814]": 819, "coventry": 13613, "preliminary": 8824, "chopper": 28057, "phrase": 7655, "##rling": 22036, "##storm": 19718, "decline": 6689, "nadia": 14942, "[unused1]": 2, "illustrates": 24899, "##shed": 14740, "lizard": 15450, "mallory": 20468, "objective": 7863, "1990s": 4134, "##nto": 13663, "princely": 22771, "stranger": 7985, "inheritance": 12839, "rebellious": 22614, "grotesque": 27707, "hyundai": 25983, "##oku": 21940, "separating": 14443, "echoes": 17659, "\u0bc8": 1399, "spd": 23772, "##lub": 27959, "tattoo": 11660, "##po": 6873, "referred": 3615, "##\u0f0d": 29961, "ii": 2462, "fleetwood": 23866, "impulse": 14982, "shreveport": 23740, "hunted": 14682, "\u8fb6": 1956, "nacional": 10718, "repertory": 21099, "teen": 9458, "dawned": 27702, "quarrel": 26260, "##iji": 27821, "gothic": 7788, "meek": 28997, "fx": 23292, "sui": 24086, "1868": 7582, "superiors": 22983, "##rdon": 28176, "marx": 13518, "##aur": 21159, "ancestral": 14947, "bey": 20289, "favourite": 8837, "taxpayers": 26457, "\u826f": 1938, "gal": 14891, "##aran": 20486, "kickoff": 25233, "\u2295": 1612, "strategically": 23972, "##logue": 24277, "savings": 10995, "##kar": 6673, "brigade": 4250, "enveloped": 25407, "volleyball": 7454, "champ": 24782, "##ffled": 28579, "\u092c": 1329, "architecture": 4294, "prospect": 9824, "bibliography": 24751, "willed": 22705, "feet": 2519, "supposedly": 10743, "##zzy": 28753, "lessons": 8220, "rattling": 26347, "imagining": 16603, "norway": 5120, "##oning": 13369, "glorious": 14013, "\u2660": 1623, "alumnus": 19678, "##uss": 17854, "enrico": 21982, "hips": 6700, "seafood": 23621, "jerking": 22387, "irish": 3493, "liberated": 19553, "dialect": 9329, "emerged": 6003, "snacks": 27962, "##eo": 8780, "##sg": 28745, "leans": 12671, "exploit": 18077, "loaf": 27048, "luciano": 24512, "cooperate": 17654, "managing": 6605, "dared": 15048, "broader": 12368, "discretion": 19258, "##cit": 26243, "totally": 6135, "princes": 12000, "resource": 7692, "compelled": 15055, "bite": 6805, "##bc": 9818, "pond": 8644, "\u4fe1": 1767, "##kir": 23630, "##graph": 14413, "[unused297]": 302, "##ef": 12879, "glider": 18788, "\u2018": 1520, "stored": 8250, "ng": 12835, "questioned": 8781, "boer": 19945, "##66": 28756, "1949": 4085, "developments": 8973, "##eve": 18697, "settled": 3876, "thai": 7273, "snow": 4586, "sight": 4356, "framework": 7705, "collects": 17427, "filmed": 6361, "otago": 21831, "straightening": 27508, "##bba": 22414, "[unused845]": 850, "##rri": 18752, "respect": 4847, "neglected": 15486, "##ently": 28198, "rushes": 18545, "##phobia": 24920, "scheduled": 5115, "\u53e4": 1789, "mythology": 11327, "scarborough": 18603, "[unused561]": 566, "ark": 15745, "##pod": 27633, "ra": 10958, "likened": 28834, "tasting": 18767, "alistair": 23752, "expectation": 17626, "##pone": 29513, "gunner": 14850, "[unused274]": 279, "[unused740]": 745, "ported": 27650, "turning": 3810, "energetic": 18114, "##jon": 14339, "heresy": 28354, "invite": 13260, "1771": 20708, "cigarettes": 15001, "engraved": 16328, "monitored": 17785, "vanguard": 18332, "coffin": 13123, "coping": 27520, "distinguishing": 20852, "newsweek": 26948, "##hak": 20459, "respecting": 27818, "centers": 6401, "caesar": 11604, "nail": 13774, "transcription": 14193, "henderson": 9481, "browns": 13240, "wiener": 25072, "creators": 17277, "##horpe": 22044, "wren": 16255, "trapping": 22977, "morale": 19292, "jewel": 13713, "gorman": 25693, "##gard": 13444, "##\u201d": 30059, "sentiment": 15792, "##vocation": 19152, "bucharest": 14261, "francesca": 15409, "hernandez": 13688, "\u2191": 1584, "competence": 22219, "brakes": 13627, "##tta": 5946, "moldova": 16772, "hank": 9180, "nicholson": 16955, "medley": 13863, "kazakhstan": 11769, "exercises": 11110, "travis": 10001, "yearly": 12142, "##pse": 29251, "supplement": 12448, "invaded": 10836, "inscription": 9315, "enactment": 26465, "##86": 20842, "ipod": 26322, "electronics": 8139, "rao": 10546, "##zar": 9057, "duets": 29410, "##nik": 8238, "vortex": 23463, "portrayal": 13954, "pointer": 20884, "hahn": 24266, "##vity": 24872, "lighting": 7497, "##\u798f": 30452, "spit": 13183, "sparhawk": 13709, "von": 3854, "57": 5401, "sketches": 12741, "[unused993]": 998, "##\u3068": 30192, "neutrality": 21083, "[unused739]": 744, "cannons": 17138, "##berries": 20968, "##nr": 16118, "pathogen": 26835, "hybrids": 23376, "legs": 3456, "instructional": 23219, "pauline": 15595, "mythological": 21637, "helens": 24074, "##rdy": 17460, "antennas": 26315, "joke": 8257, "emma": 5616, "parades": 26635, "bleak": 21657, "stacy": 18566, "comet": 15699, "hoover": 17443, "[unused898]": 903, "managerial": 24465, "related": 3141, "arboretum": 25197, "manson": 21440, "como": 18609, "having": 2383, "uber": 19169, "slowing": 18068, "villains": 16219, "coloration": 28757, "[unused311]": 316, "##mism": 26725, "1709": 28955, "##\u30cb": 30242, "scuba": 28651, "scandals": 29609, "compatible": 11892, "deserved": 10849, "wal": 24547, "nirvana": 26530, "say": 2360, "engine": 3194, "##\u5185": 30299, "faso": 22773, "##cast": 10526, "sunk": 10417, "bordered": 11356, "injunction": 22928, "grant": 3946, "##glass": 15621, "archduke": 27463, "##head": 4974, "ligue": 18374, "##\u0635": 29826, "regulars": 24945, "microscopic": 26396, "departing": 15971, "prophets": 23172, "##:": 29627, "##\u091a": 29854, "religions": 11822, "subunit": 24312, "##te": 2618, "##frid": 27439, "nope": 16780, "##bbs": 17226, "##ts": 3215, "barrie": 24953, "upgrading": 25925, "jamaica": 9156, "relies": 16803, "1710": 23841, "endemic": 7320, "v8": 15754, "glances": 13021, "approve": 14300, "##que": 4226, "jacques": 7445, "daemon": 12828, "##tori": 29469, "232": 20666, "##kic": 29493, "transfers": 15210, "##\u045b": 29764, "[unused840]": 845, "supervised": 13588, "consultative": 28581, "rose": 3123, "ernst": 10728, "bologna": 14102, "##(": 29619, "\u5b50": 1816, "evidenced": 21328, "rodgers": 15652, "caf": 24689, "pathway": 12732, "\u0562": 1220, "greenhouse": 16635, "joshi": 26645, "\u674e": 1877, "equally": 8053, "roasted": 28115, "mao": 15158, "expertise": 11532, "##aea": 21996, "novice": 23131, "-": 1011, "forrest": 16319, "canvas": 10683, "malcolm": 8861, "terminals": 17703, "vice": 3580, "protagonists": 21989, "examinations": 14912, "paulo": 9094, "##\u535a": 30312, "marches": 20691, "trauma": 12603, "addition": 2804, "inuit": 25179, "[unused53]": 54, "##as": 3022, "smoking": 9422, "editorial": 8368, "##run": 15532, "[unused246]": 251, "marne": 25823, "mont": 18318, "##laya": 22923, "annoyance": 17466, "upper": 3356, "white": 2317, "##iness": 9961, "bouquet": 26700, "brewery": 12161, "remind": 10825, "comb": 22863, "##iver": 16402, "cnn": 13229, "aid": 4681, "interactive": 9123, "nic": 27969, "[unused230]": 235, "strip": 6167, "brigades": 14589, "##ows": 15568, "anatomy": 13336, "allocated": 11095, "cadets": 15724, "funded": 6787, "##tera": 14621, "spheres": 19885, "##rini": 22612, "zombies": 14106, "[unused480]": 485, "contributes": 16605, "##tad": 17713, "##$": 29615, "hawkins": 13835, "imagined": 8078, "planetary": 17700, "##ap": 9331, "##\u0564": 29769, "outfielder": 21033, "\u3042": 1646, "maker": 9338, "##rani": 21578, "##reate": 29313, "counsel": 9517, "detention": 12345, "\u0142": 1105, "dude": 12043, "mb": 16914, "escorts": 24877, "##real": 22852, "fife": 20537, "##cturing": 19159, "preoccupied": 23962, "popular": 2759, "blanket": 8768, "169": 18582, "wessex": 27886, "peace": 3521, "luther": 9678, "consolidated": 10495, "onstage": 23542, "hourly": 21462, "gotten": 5407, "oath": 11292, "torture": 8639, "poetic": 13805, "relocation": 18344, "automotive": 12945, "margins": 17034, "##yd": 25688, "bicycle": 10165, "staring": 4582, "evade": 26399, "\u1109": 1461, "violations": 13302, "rotated": 20931, "##lates": 26786, "hearst": 25419, "expansion": 4935, "satisfying": 17087, "flicked": 12777, "kia": 27005, "apart": 4237, "\u0436": 1186, "##rating": 15172, "howled": 27489, "nottinghamshire": 20126, "ars": 29393, "musique": 25784, "anzac": 29224, "summarized": 22539, "rubbing": 10137, "[unused720]": 725, "##ir": 4313, "##eering": 20550, "tin": 9543, "trimmed": 21920, "knee": 6181, "townsend": 16139, "[unused100]": 105, "commemorates": 25530, "assumed": 5071, "basket": 10810, "timed": 22313, "\u6c11": 1892, "becca": 22140, "barbados": 16893, "unlimited": 14668, "##ati": 10450, "68": 6273, "##gence": 17905, "graz": 26918, "stunts": 28465, "celebrate": 8439, "societies": 8384, "caucasian": 23368, "##udge": 15979, "head": 2132, "trenches": 19874, "suspicions": 17817, "##lle": 6216, "##chang": 22305, "##frey": 22586, "admiration": 17005, "toll": 9565, "[unused651]": 656, "cooked": 12984, "classes": 4280, "agustin": 26889, "terms": 3408, "ik": 20912, "franciscan": 19420, "deck": 5877, "futile": 24495, "direction": 3257, "calculating": 20177, "##\u307e": 30203, "torah": 16297, "tori": 23413, "[unused941]": 946, "elbows": 13690, "enter": 4607, "endeavor": 23855, "convoys": 23083, "525": 25621, "columbia": 3996, "ankle": 10792, "##yer": 10532, "\u2207": 1595, "zinc": 15813, "elegant": 11552, "coil": 17085, "demands": 7670, "##ruff": 26919, "##orn": 9691, "celine": 24550, "\u03c9": 1179, "differentiated": 24374, "gain": 5114, "disgust": 12721, "##oll": 14511, "earlier": 3041, "initiation": 17890, "ingram": 23231, "erotic": 14253, "[unused976]": 981, "##tility": 18724, "##\u0459": 29762, "chances": 9592, "accounts": 6115, "fiddle": 15888, "[unused702]": 707, "##\u2194": 30115, "##erian": 27549, "##rgo": 18581, "biography": 8308, "loudly": 9928, "[unused981]": 986, "[unused911]": 916, "vents": 28287, "pork": 15960, "##ial": 4818, "melbourne": 4940, "brig": 16908, "involves": 7336, "completion": 6503, "dessert": 18064, "vii": 8890, "now": 2085, "immense": 14269, "invisible": 8841, "faithful": 11633, "##flight": 28968, "leicester": 11258, "hardness": 23608, "intervened": 21116, "elle": 15317, "investigated": 10847, "kiss": 3610, "##sia": 8464, "##vos": 19862, "levine": 17780, "digging": 10443, "taxonomy": 25274, "kitty": 14433, "##bay": 15907, "barrister": 19805, "##quisite": 24871, "plainly": 24250, "\u043d": 1192, "##\u21c4": 30117, "\u304b": 1651, "1666": 27407, "spectroscopy": 25458, "adjustable": 26404, "lavender": 20920, "eki": 23174, "shame": 9467, "nasser": 26099, "nasal": 19077, "\u25aa": 1618, "canceled": 13261, "arrange": 13621, "accusing": 16723, "##\u306a": 30193, "boyer": 23456, "genius": 11067, "##rated": 9250, "##viere": 27087, "ant": 14405, "arcadia": 25178, "roe": 20944, "julia": 6423, "information": 2592, "literacy": 8433, "longed": 23349, "unpredictable": 21446, "crane": 11308, "tor": 17153, "action": 2895, "graphs": 19287, "##rito": 28414, "screenplay": 9000, "seekers": 24071, "\u2079": 1543, "cleansing": 26799, "receive": 4374, "dario": 26800, "##qual": 26426, "imminent": 17566, "##ition": 22753, "fucked": 21746, "suicidal": 26094, "awkward": 9596, "sheffield": 8533, "notation": 14869, "salvatore": 17485, "cheered": 25471, "checks": 14148, "nero": 19212, "emeritus": 12372, "eyelids": 16544, "annum": 28907, "pianist": 9066, "becoming": 3352, "lock": 5843, "boasted": 23390, "marguerite": 15334, "##ceptive": 28687, "fatigue": 16342, "scanned": 11728, "lad": 14804, "##rar": 19848, "##bala": 25060, "260": 13539, "amid": 13463, "[unused755]": 760, "##gged": 15567, "systems": 3001, "sonia": 16244, "lawyers": 9559, "hana": 26048, "integer": 16109, "menon": 25111, "mountainous": 14897, "sacks": 14918, "elton": 19127, "##ein": 12377, "administrative": 3831, "problems": 3471, "flanked": 15874, "##date": 13701, "algerian": 16953, "##mobile": 17751, "restroom": 28249, "shows": 3065, "##\u2212": 22543, "steward": 17946, "tropical": 5133, "countryside": 10833, "vietnam": 5148, "##\u1173": 30017, "recaptured": 23838, "transmitted": 11860, "bunk": 25277, "augsburg": 24362, "compartments": 27998, "electorate": 13694, "alleged": 6884, "ha": 5292, "[unused63]": 64, "##gration": 29397, "anchored": 14453, "length": 3091, "[unused677]": 682, "##\u0452": 29758, "prevention": 9740, "##meral": 28990, "[unused352]": 357, "29th": 16318, "flinched": 19201, "coldly": 24745, "bosnian": 16163, "tesla": 26060, "stationed": 8895, "nickelodeon": 20814, "bunker": 15742, "sue": 9790, "cocky": 24995, "landslide": 20148, "##ona": 7856, "##\u2085": 30081, "##tov": 26525, "lengthy": 12401, "##\u5b9a": 30348, "hence": 6516, "ballots": 17069, "holds": 4324, "sensor": 13617, "670": 25535, "[unused858]": 863, "##kin": 4939, "downloads": 22956, "resemble": 13014, "essential": 6827, "billing": 25640, "residence": 5039, "[unused470]": 475, "eden": 10267, "##llation": 20382, "loyola": 21580, "internet": 4274, "##hia": 12995, "\u203f": 1534, "##sari": 22740, "##acies": 20499, "##[": 29634, "melinda": 23721, "ranch": 8086, "march": 2233, "1682": 29478, "calculation": 17208, "gonna": 6069, "nicolas": 9473, "rebuilding": 14584, "stamford": 22469, "1853": 8933, "hurts": 13403, "dale": 8512, "beach": 3509, "atkinson": 18646, "brianna": 25558, "##sden": 27903, "cornerback": 26857, "enemy": 4099, "reunite": 25372, "##\u0631": 17149, "opens": 7480, "ca": 6187, "marc": 7871, "kidnap": 22590, "nur": 27617, "rupert": 14641, "remixed": 17574, "##iva": 11444, "allocation": 16169, "rubble": 17538, "converts": 19884, "stack": 9991, "concentrate": 10152, "pill": 17357, "burial": 8940, "anton": 9865, "upward": 10745, "##en": 2368, "##sman": 11512, "reunited": 11653, "clad": 13681, "[unused912]": 917, "withdrawing": 21779, "cpu": 17368, "inquisition": 24638, "warrant": 10943, "molly": 9618, "forum": 7057, "adolescence": 29101, "alpha": 6541, "ousted": 28368, "##yce": 29297, "punching": 19477, "payload": 18093, "waived": 16301, "chant": 16883, "veins": 9607, "mansion": 7330, "##wind": 11101, "##ig": 8004, "links": 6971, "katherine": 9477, "##bra": 10024, "##inatory": 28230, "editors": 10195, "##idia": 29342, "[unused265]": 270, "amendment": 7450, "restaurants": 7884, "watt": 15231, "darted": 14051, "mma": 21021, "121": 12606, "drums": 3846, "freaking": 13847, "tucked": 9332, "pubs": 23598, "##iate": 13143, "watching": 3666, "##points": 26521, "mickey": 11021, "bless": 19994, "##mble": 19661, "##thed": 23816, "hermann": 12224, "superfamily": 24169, "##tively": 25499, "debts": 13930, "##heard": 26362, "sensory": 16792, "rotten": 11083, "except": 3272, "distributors": 22495, "1665": 27676, "ito": 23333, "blurred": 18449, "composition": 5512, "helmut": 24515, "1942": 3758, "armenia": 10110, "seeds": 8079, "bourbon": 15477, "graded": 21976, "[unused329]": 334, "showcasing": 27696, "##\u1d64": 30044, "collapsing": 22724, "dwarves": 29281, "conserved": 19995, "##chy": 11714, "fiba": 13651, "keller": 16155, "[unused167]": 172, "bone": 5923, "pioneered": 16193, "nashville": 8423, "drummer": 7101, "baxter": 14664, "gee": 20277, "uniforms": 11408, "[unused686]": 691, "gases": 15865, "contract": 3206, "kicked": 6476, "##odes": 19847, "##vitt": 28656, "friction": 15012, "##va": 3567, "sorrow": 14038, "##mony": 22847, "slack": 19840, "outright": 13848, "ceylon": 16447, "abundant": 12990, "strawberry": 16876, "august": 2257, "\u00ab": 1077, "##insky": 20894, "309": 25048, "daily": 3679, "rare": 4678, "banking": 8169, "ix": 11814, "##aq": 20784, "disk": 9785, "register": 4236, "stars": 3340, "[unused300]": 305, "\u8eca": 1954, "corrupt": 13593, "linguistics": 15397, "turkey": 4977, "ashes": 11289, "melted": 12501, "##boards": 15271, "##sov": 23230, "bartender": 15812, "wild": 3748, "surrounded": 5129, "wireless": 9949, "##tify": 27351, "conspicuous": 19194, "locating": 26339, "##\u6226": 30382, "##lls": 12718, "[unused531]": 536, "historia": 19891, "audi": 20075, "operates": 5748, "accord": 15802, "##yuan": 17236, "##athan": 29246, "evil": 4763, "tourist": 7538, "apps": 18726, "modest": 10754, "herself": 2841, "raul": 16720, "anhalt": 27088, "newspapers": 6399, "ornamental": 18200, "unreliable": 23579, "caledonian": 27449, "flyer": 23821, "bender": 25386, "417": 27519, "vaudeville": 19698, "caused": 3303, "algorithms": 13792, "preseason": 20038, "incarnation": 15715, "suburb": 7575, "bermuda": 13525, "chuck": 8057, "verdict": 14392, "##ie": 2666, "elaborated": 25187, "surveyor": 17169, "greed": 22040, "capsule": 18269, "xl": 28712, "booker": 16674, "1918": 4271, "warmer": 16676, "focus": 3579, "forever": 5091, "suffrage": 15178, "culminated": 16943, "##\u8cb4": 30479, "games": 2399, "##stan": 12693, "ari": 10488, "comrades": 19033, "badly": 6649, "libel": 26201, "violins": 25877, "brooklyn": 6613, "province": 2874, "peripheral": 15965, "outlaw": 19104, "formulated": 19788, "213": 19883, "occasional": 8138, "##oman": 20778, "yields": 16189, "pedal": 15749, "explosives": 14792, "oilers": 19778, "##dom": 9527, "producer": 3135, "colder": 21399, "##gp": 21600, "\u0111": 1102, "enriched": 25202, "21": 2538, "conservation": 5680, "mafia": 13897, "96": 5986, "234": 22018, "presidential": 4883, "sts": 8541, "reviews": 4391, "##\u2227": 30129, "dissertation": 14481, "attributes": 12332, "fatalities": 20871, "##lat": 20051, "predator": 15267, "pt": 13866, "anarchist": 18448, "\u1d48": 1498, "165": 13913, "fly": 4875, "prostitution": 15016, "humanities": 11406, "##i": 2072, "respondents": 25094, "congo": 9030, "prepare": 7374, "sudan": 10411, "ten": 2702, "##elial": 24587, "##uer": 13094, "[unused473]": 478, "brazilian": 6142, "110": 7287, "introductory": 23889, "hectare": 20406, "slope": 9663, "outset": 26674, "baker": 6243, "\u5289": 1777, "\u3089": 1685, "##\u6c5f": 30423, "never": 2196, "+": 1009, "loads": 15665, "speculated": 15520, "pia": 24624, "enthusiast": 29550, "pursuits": 23719, "turns": 4332, "conventional": 7511, "hypothesis": 10744, "produced": 2550, "fascist": 14870, "1948": 3882, "##ige": 25538, "tim": 5199, "bates": 11205, "##gua": 19696, "trusts": 20278, "indefinitely": 20733, "charged": 5338, "51st": 26017, "##pur": 5311, "sewage": 19873, "attire": 20426, "[unused558]": 563, "screwed": 14180, "behavioral": 14260, "profitable": 15282, "##tura": 27431, "spiritual": 6259, "ellis": 8547, "\u0251": 1110, "invites": 18675, "##sy": 6508, "##ya": 3148, "mitsubishi": 19695, "revolutionary": 6208, "##ver": 6299, "##roud": 21332, "shoulder": 3244, "honourable": 17164, "\u11b7": 1487, "inherently": 26096, "db": 16962, "rough": 5931, "##\u2248": 30133, "vertebrae": 25517, "projecting": 18398, "blame": 7499, "thru": 27046, "houses": 3506, "me": 2033, "abilities": 7590, "spends": 15970, "expanding": 9186, "##ess": 7971, "try": 3046, "darius": 14861, "living": 2542, "1910": 4976, "pune": 16920, "parallels": 18588, "shuttle": 10382, "wires": 14666, "\u02be": 1147, "##ignment": 24838, "`": 1036, "lacrosse": 13488, "paths": 10425, "grossing": 18244, "recounted": 22906, "twins": 8178, "50th": 12951, "saves": 13169, "##stones": 29423, "fran": 23151, "stabbing": 21690, "barack": 13857, "##eti": 20624, "liner": 11197, "map": 4949, "##ying": 14147, "inhaled": 15938, "usage": 8192, "japan": 2900, "cabins": 20321, "routine": 9410, "[unused922]": 927, "##\u06a9": 29841, "[unused580]": 585, "rode": 8469, "137": 14989, "##dion": 29573, "generate": 9699, "stormy": 24166, "philosophy": 4695, "rappers": 28257, "alloy": 17564, "[unused22]": 23, "yet": 2664, "1659": 28288, "gesturing": 22317, "avant": 14815, "mile": 3542, "situated": 4350, "cursing": 19752, "classed": 27811, "##ws": 9333, "##vey": 12417, "1806": 12518, "##bach": 7693, "enrollment": 10316, "gill": 12267, "siberian": 21822, "\u305b": 1659, "gladly": 24986, "therapist": 19294, "jamestown": 27435, "unusually": 12890, "mumbai": 8955, "consistent": 8335, "located": 2284, "org": 8917, "mustafa": 19683, "curled": 8188, "logos": 25571, "moshe": 27123, "perennial": 14638, "theorist": 24241, "##mage": 26860, "membrane": 10804, "exhibitions": 8596, "flees": 24776, "##riation": 18769, "ellie": 10707, "approaches": 8107, "historical": 3439, "reductions": 25006, "\u10e3": 1454, "variance": 23284, "suzuki": 14278, "psychologist": 15034, "##shi": 6182, "##\u05d9": 29796, "explosion": 7738, "ashley": 9321, "calculate": 18422, "\u0441": 1196, "slip": 7540, "visiting": 5873, "distracted": 11116, "rivalry": 10685, "##nated": 23854, "chamber": 4574, "troll": 18792, "softened": 16573, "postseason": 17525, "physicians": 11572, "assumptions": 17568, "stil": 25931, "contaminated": 19450, "ducked": 13781, "roar": 11950, "greta": 26111, "brisbane": 7717, "somerset": 9198, "scroll": 17186, "prestige": 14653, "rodents": 28156, "##fulness": 20938, "faust": 24021, "denotes": 14796, "hurry": 9241, "riches": 26768, "##\u1110": 30003, "78": 6275, "donations": 11440, "stat": 28093, "##zog": 28505, "1618": 29029, "##sl": 14540, "##rwood": 20941, "##70": 19841, "organisms": 11767, "##51": 22203, "odds": 10238, "##vir": 21663, "##den": 4181, "[unused361]": 366, "##wear": 16689, "vegetables": 11546, "##bolic": 18647, "##ivo": 20984, "##me": 4168, "turk": 22883, "wives": 10403, "shores": 13312, "starter": 11753, "\u4e4b": 1749, "claiming": 6815, "##\u03b7": 24824, "attacks": 4491, "desire": 4792, "edith": 13257, "##ns": 3619, "disappointed": 9364, "cerro": 25498, "them": 2068, "246": 22376, "multicultural": 27135, "taipei": 14004, "[unused46]": 47, "##rit": 14778, "lawful": 26410, "concerned": 4986, "[unused760]": 765, "architectural": 6549, "##iously": 19426, "chromosomes": 26874, "##tou": 24826, "derek": 7256, "decisive": 13079, "declares": 18806, "thankful": 18836, "dam": 5477, "pupil": 11136, "[unused909]": 914, "civil": 2942, "paterson": 19162, "encounter": 8087, "russell": 5735, "totals": 21948, "point": 2391, "##v": 2615, "susie": 23917, "daphne": 16847, "skipped": 16791, "so": 2061, "##lk": 13687, "[unused821]": 826, "helicopters": 12400, "##agawa": 20812, "weddings": 20429, "##ud": 6784, "[unused377]": 382, "visual": 5107, "rolled": 4565, "travers": 29053, "lakshmi": 21352, "##drop": 25711, "\uff09": 1988, "##izzly": 29266, "website": 4037, "dismissed": 7219, "##ital": 18400, "385": 24429, "##rred": 20529, "##nut": 24072, "fourteenth": 15276, "vernon": 11447, "##erina": 26052, "nightly": 22390, "guide": 5009, "commune": 5715, "##ths": 26830, "profound": 13769, "##atter": 20097, "is": 2003, "##\u7f8e": 30461, "existing": 4493, "potent": 16834, "reasonably": 16286, "droplets": 27126, "##uses": 25581, "##inates": 28184, "asserted": 13647, "shortage": 15843, "[unused676]": 681, "maintains": 9319, "##nah": 15272, "##ville": 3077, "##bn": 24700, "replacements": 23936, "##truct": 18300, "california": 2662, "##ots": 12868, "assignment": 8775, "##efe": 27235, "\u05d3": 1244, "useless": 11809, "cbe": 15852, "##urity": 25137, "##ensburg": 28812, "9": 1023, "resembled": 15881, "##rret": 27032, "##\u0965": 29881, "crush": 10188, "ashby": 28729, "zhao": 15634, "transport": 3665, "kan": 22827, "\u7537": 1912, "abel": 16768, "wing": 3358, "offset": 16396, "##urance": 25863, "pali": 28619, "##chus": 16194, "##lices": 29146, "##mined": 25089, "noting": 9073, "\u02b2": 1141, "##ures": 14900, "henley": 20768, "exits": 16639, "suit": 4848, "ariel": 16126, "hermit": 24308, "wealthy": 7272, "anders": 15387, "landau": 28570, "sucked": 8631, "adaptations": 17241, "trigger": 9495, "##witz": 15362, "davenport": 16273, "##g": 2290, "collarbone": 29600, "##missive": 27876, "##\u9673": 30498, "reno": 17738, "peeling": 28241, "osborn": 26999, "\u30de": 1723, "##corp": 24586, "boris": 11235, "##hea": 20192, "1757": 22621, "astronomical": 13674, "##sable": 19150, "competitor": 12692, "elisa": 29490, "durga": 28746, "chiefs": 9058, "[unused272]": 277, "bilbao": 25427, "massey": 21402, "draper": 23641, "none": 3904, "paranormal": 20725, "resist": 9507, "##inging": 23180, "flying": 3909, "sarawak": 21546, "shoes": 6007, "permission": 6656, "antennae": 28624, "gulped": 25411, "ada": 15262, "makeshift": 19368, "625": 22810, "happier": 19366, "extensively": 8077, "autobiographical": 18534, "austen": 24177, "brunei": 18692, "[unused826]": 831, "climax": 14463, "squire": 21263, "doing": 2725, "god": 2643, "centimeters": 18119, "reef": 12664, "sciences": 4163, "alarm": 8598, "swallowed": 7351, "voyages": 21993, "tha": 22794, "jug": 26536, "evolving": 20607, "1400": 20652, "2015": 2325, "[unused687]": 692, "##scan": 29378, "##suke": 16867, "pedersen": 27409, "##stadt": 21543, "backpack": 13383, "##olved": 16116, "incentives": 21134, "\u5973": 1815, "tho": 27793, "source": 3120, "comprehensive": 7721, "\u25cf": 1619, "proteins": 8171, "ussr": 10331, "1734": 27367, "##sky": 5874, "##nen": 10224, "##\u4ecb": 30285, "102": 9402, "nearing": 23454, "##omp": 25377, "rejects": 19164, "wnba": 25554, "edmonton": 10522, "##standing": 24911, "syndicated": 13889, "enhancing": 20226, "\u00ae": 1079, "\u308a": 1686, "psychology": 6825, "welterweight": 20882, "rumors": 11256, "guillermo": 21070, "elf": 17163, "circulating": 22458, "eds": 11985, "##bib": 28065, "1780": 15051, "forth": 5743, "muslims": 7486, "recipes": 19328, "eureka": 21142, "buttons": 11287, "briefly": 4780, "\u0dbb": 1405, "heat": 3684, "##cap": 17695, "##aru": 15728, "alexia": 21683, "subsidies": 21762, "tri": 13012, "##lman": 12624, "vancouver": 6930, "recruitment": 15680, "internment": 29041, "##ians": 7066, "south": 2148, "papa": 13008, "1788": 15622, "smoky": 20629, "clause": 11075, "##\u1d40": 30031, "##urne": 21737, "##marks": 27373, "##\u2096": 30094, "257": 24368, "lumpur": 17761, "kenji": 25894, "\u00b5": 1085, "community": 2451, "choice": 3601, "backlash": 25748, "goran": 28356, "##burn": 8022, "lan": 17595, "marko": 28003, "##us": 2271, "sera": 26358, "##night": 15864, "avenues": 20859, "dawn": 6440, "activate": 20544, "knight": 5000, "##rrie": 22155, "##eak": 25508, "care": 2729, "colossal": 29523, "agreement": 3820, "jessica": 8201, "breast": 7388, "510": 23475, "jocelyn": 23786, "##df": 20952, "distortion": 20870, "supervising": 21238, "jake": 5180, "##lellan": 25839, "mercenary": 22146, "profit": 5618, "be": 2022, "poly": 26572, "liquidation": 28763, "##tle": 9286, "287": 23090, "barak": 27739, "groups": 2967, "sport": 4368, "##\u0f60": 29969, "mansfield": 15352, "disposed": 21866, "archive": 8756, "affiliated": 6989, "##ilia": 27861, "guilty": 5905, "posts": 8466, "##har": 8167, "promising": 10015, "expands": 24545, "##\u03bb": 29727, "dull": 10634, "vectors": 19019, "##sma": 26212, "disappointment": 10520, "assist": 6509, "immaculate": 19532, "##\u1112": 30005, "offices": 4822, "dayton": 14700, "##uw": 25974, "##rogen": 22991, "myrtle": 21381, "markus": 23030, "padres": 21577, "79": 6535, "carroll": 10767, "[unused831]": 836, "lange": 21395, "hepburn": 22004, "logistics": 12708, "[unused102]": 107, "brothers": 3428, "introduction": 4955, "scripted": 22892, "free": 2489, "ngos": 22165, "\u2012": 1515, "##\u2153": 30109, "triggered": 13330, "straining": 21366, "aka": 9875, "sporadic": 24590, "ein": 16417, "coded": 22402, "555": 29541, "fluorescent": 22184, "suggesting": 9104, "granada": 16553, "prisoner": 7267, "found": 2179, "heads": 4641, "isil": 19600, "scrambled": 13501, "##inkles": 28562, "stemming": 29217, "dealings": 24069, "swiped": 24452, "17th": 5550, "##esis": 19009, "dhabi": 23153, "##ici": 28775, "bikini": 20345, "##matic": 12644, "saetan": 23515, "##ence": 10127, "##ener": 24454, "pay": 3477, "supreme": 4259, "overs": 15849, "##\u8c9d": 30478, "biologist": 21477, "nonfiction": 25753, "##\u2663": 30151, "carlo": 9758, "frankie": 12784, "clearing": 8430, "worcester": 12539, "soldier": 5268, "wastewater": 28269, "kind": 2785, "parting": 20254, "dungeons": 20264, "foundation": 3192, "lucian": 18218, "nationalities": 24904, "##yen": 20684, "apprenticeship": 20448, "facing": 5307, "notions": 21951, "death": 2331, "\u110a": 1462, "##chan": 14856, "mold": 18282, "barnet": 26864, "[unused791]": 796, "[unused124]": 129, "radiated": 23000, "##masters": 27751, "##sm": 6491, "menu": 12183, "1704": 27769, "chi": 9610, "voss": 24878, "prosperity": 14165, "cache": 17053, "canon": 9330, "penang": 21812, "managers": 10489, "guthrie": 19952, "##sing": 7741, "overlooking": 12549, "selma": 28112, "deceased": 10181, "dee": 9266, "awe": 15180, "##\u05e4": 29807, "saskatoon": 25447, "sediments": 20476, "bk": 23923, "149": 17332, "pomerania": 18631, "sarah": 4532, "252": 22898, "dresden": 12983, "\u116a": 1476, "##np": 16275, "raising": 6274, "programming": 4730, "services": 2578, "[unused584]": 589, "somme": 25158, "welding": 23604, "catholicism": 16138, "##\u0254": 29679, "##olar": 19478, "milton": 9660, "fugitive": 21329, "accounting": 9529, "##crest": 25313, "january": 2254, "319": 26499, "vest": 17447, "absence": 6438, "owner": 3954, "proposed": 3818, "sentenced": 7331, "jordan": 5207, "tone": 4309, "mariana": 22097, "goddess": 7804, "attachment": 14449, "miner": 18594, "gut": 9535, "loyal": 8884, "recommendation": 12832, "166": 18610, "devil": 6548, "##iano": 15668, "stretching": 10917, "##edance": 29605, "demonstrates": 16691, "viewpoint": 21386, "cancel": 17542, "\u06c1": 1308, "##word": 18351, "##rre": 14343, "serviced": 22858, "tame": 24763, "reid": 9027, "##\u02bb": 29711, "horatio": 27752, "major": 2350, "fulbright": 26695, "fades": 26784, "traders": 13066, "ee": 25212, "asteroid": 12175, "edinburgh": 5928, "laden": 14887, "trade": 3119, "refurbished": 18662, "supports": 6753, "downstairs": 10025, "##\u0cb0": 29937, "tess": 15540, "linnaeus": 21610, "juliet": 13707, "##hit": 16584, "idiots": 28781, "insignia": 16751, "egyptian": 6811, "[unused354]": 359, "##sius": 24721, "currie": 20667, "discontent": 27648, "appoint": 16823, "##avian": 21654, "##yam": 14852, "##gg": 13871, "ottoman": 6188, "hotels": 9275, "##lington": 18722, "##flict": 29301, "wilfred": 26026, "ry": 29431, "##\uff5e": 30521, "sutton": 11175, "dundee": 14252, "defaulted": 17265, "bandwidth": 20235, "[unused349]": 354, "repairing": 26296, "analytic": 23521, "sighs": 19906, "lines": 3210, "##hs": 7898, "##kson": 26579, "sprinted": 25156, "intended": 3832, "bonn": 19349, "contributed": 5201, "##lain": 15987, "##\u21cc": 30118, "confession": 12633, "\u044b": 1206, "euroleague": 26093, "fluttered": 18360, "order": 2344, "associates": 9228, "[unused117]": 122, "##aldi": 24657, "brings": 7545, "morales": 17103, "ditch": 14033, "##national": 25434, "bleed": 19501, "##ural": 11137, "episcopal": 9134, "forbade": 27315, "##rral": 24988, "extension": 5331, "cardiac": 15050, "sgt": 17001, "lair": 21039, "[unused198]": 203, "salary": 10300, "splits": 19584, "nw": 22064, "jarrett": 24503, "exhausted": 9069, "mental": 5177, "suppliers": 20141, "earning": 7414, "represented": 3421, "thumbs": 16784, "##coat": 16531, "montagu": 26241, "56th": 29087, "breton": 16659, "masterpiece": 17743, "huddled": 20258, "proving": 13946, "numbering": 15200, "##iferous": 23930, "voivodeship": 7225, "buses": 7793, "tread": 29449, "pastures": 24813, "##elles": 22869, "rohan": 28605, "manual": 6410, "sao": 7509, "closer": 3553, "malaysian": 11843, "needs": 3791, "godfrey": 18238, "confused": 5457, "bacteria": 10327, "bamboo": 15216, "feminism": 20050, "##graphs": 27341, "growling": 22413, "##mura": 16069, "tugged": 10621, "quiet": 4251, "moderator": 29420, "cakes": 22619, "orbital": 13943, "deadline": 15117, "vedic": 25824, "##evic": 17726, "recognised": 7843, "decrease": 9885, "reflecting": 10842, "colour": 6120, "sixty": 8442, "##brush": 18623, "enclosed": 10837, "repository": 22409, "##\u0574": 29776, "##sus": 13203, "##\u0bb3": 29929, "1540": 27536, "employee": 7904, "controversial": 6801, "provost": 18523, "##broken": 29162, "judy": 12120, "indians": 6505, "raaf": 22709, "oxfordshire": 20124, "firearms": 13780, "##\u2077": 30076, "crucial": 10232, "braden": 27232, "notified": 19488, "birthday": 5798, "visible": 5710, "##\u8033": 30463, "vitro": 25714, "places": 3182, "biological": 6897, "routines": 23964, "##27": 22907, "volunteer": 6951, "331": 27533, "##urable": 23086, "wool": 12121, "agencies": 6736, "##nction": 27989, "hush": 20261, "##mes": 7834, "pickup": 15373, "pulp": 16016, "intimacy": 20893, "##\u30ca": 30241, "arabic": 5640, "##tten": 25970, "##kan": 9126, "noel": 10716, "aspects": 5919, "##eit": 20175, "ignore": 8568, "respects": 17475, "foreigner": 29524, "collaborator": 18843, "details": 4751, "durham": 9296, "gardening": 21529, "##oga": 18170, "[unused732]": 737, "biplane": 28686, "dna": 6064, "highs": 26836, "inspire": 18708, "sha": 21146, "eighth": 5964, "##games": 26393, "[unused366]": 371, "pagan": 14318, "edit": 10086, "ideal": 7812, "sensed": 10596, "hiram": 27410, "[unused893]": 898, "##isto": 20483, "##xin": 20303, "fiscal": 10807, "torso": 15190, "[UNK]": 100, "disciples": 17102, "spent": 2985, "adventurer": 29506, "##iving": 14966, "encompassing": 19129, "middlesbrough": 21655, "president": 2343, "epoch": 25492, "paula": 13723, "mclean": 17602, "tallest": 13747, "##agger": 27609, "[unused402]": 407, "libertarian": 19297, "valley": 3028, "civilians": 9272, "nevertheless": 6600, "statehood": 28000, "##ulated": 8898, "trilogy": 11544, "syria": 7795, "environments": 10058, "whole": 2878, "swim": 9880, "237": 23297, "daniel": 3817, "##logic": 27179, "marsh": 9409, "beverage": 19645, "##adia": 25205, "substances": 13978, "820": 26667, "[unused40]": 41, "sacrifice": 8688, "##ffie": 29055, "farmer": 7500, "petersen": 22615, "hoop": 27669, "palo": 24326, "##jet": 15759, "milan": 6954, "virgil": 17270, "silvio": 28107, "chronology": 17873, "loose": 6065, "hmm": 17012, "\u4e8c": 1752, "[unused251]": 256, "speechless": 25146, "notre": 10289, "disrupt": 23217, "ft": 3027, "collect": 8145, "wi": 15536, "onto": 3031, "\u3044": 1647, "##breakers": 27623, "painfully": 16267, "\u1107": 1460, "##ib": 12322, "[unused897]": 902, "location": 3295, "jolly": 22193, "ios": 16380, "miles": 2661, "##ories": 18909, "russians": 12513, "_": 1035, "doping": 23799, "216": 20294, "fourier": 26899, "impressed": 7622, "troubled": 11587, "##kian": 28545, "siberia": 16881, "convenient": 14057, "klein": 12555, "\u00a310": 26812, "sights": 15925, "excellent": 6581, "kisses": 8537, "tits": 25671, "disco": 12532, "through": 2083, "##\u05ea": 29813, "sy": 25353, "arbor": 19679, "matthews": 12351, "fields": 4249, "gradually": 6360, "meantime": 12507, "construction": 2810, "bartholomew": 19866, "temperate": 16868, "##tek": 23125, "my": 2026, "daryl": 22514, "wright": 6119, "bucket": 13610, "\u0444": 1199, "independent": 2981, "[unused249]": 254, "pressure": 3778, "nickname": 8367, "berry": 10498, "cerambycidae": 13168, "##tering": 17989, "draft": 4433, "##eal": 15879, "thought": 2245, "##yah": 17560, "##hard": 11783, "flowed": 13230, "dublin": 5772, "##boys": 24916, "asbestos": 29191, "makeup": 5789, "announce": 14970, "kindergarten": 11793, "reykjavik": 28559, "##sive": 12742, "sounded": 5015, "##bot": 18384, "mixed": 3816, "##oked": 23461, "##rist": 15061, "grew": 3473, "docks": 15093, "miserable": 13736, "pajamas": 27621, "##che": 5403, "questionable": 21068, "explode": 15044, "sherry": 22268, "[unused583]": 588, "##alis": 13911, "accommodation": 11366, "trophies": 22236, "bacterial": 17341, "landmarks": 16209, "\u056f": 1227, "[unused577]": 582, "si": 9033, "names": 3415, "gomez": 12791, "article": 3720, "calmly": 12885, "\u90e8": 1960, "\u00bd": 1092, "##nem": 25832, "##\uff01": 30512, "criteria": 9181, "universidad": 16501, "geo": 20248, "serge": 21747, "magna": 20201, "##mund": 25574, "benoit": 21721, "junctions": 27169, "corbett": 24119, "patience": 11752, "charred": 29030, "27th": 15045, "intersects": 17349, "residues": 22644, "##rak": 16555, "##optera": 25324, "haven": 4033, "distribution": 4353, "expense": 10961, "manchester": 5087, "##pina": 26787, "determined": 4340, "putting": 5128, "designation": 8259, "steep": 9561, "rampant": 25883, "violating": 20084, "roughly": 5560, "jets": 9924, "3rd": 3822, "because": 2138, "cfa": 28125, "\u0569": 1224, "boost": 12992, "fleet": 4170, "benny": 11945, "emergencies": 26360, "##n": 2078, "gao": 17377, "told": 2409, "kei": 26679, "##hesion": 21471, "peninsula": 6000, "lac": 18749, "mute": 20101, "que": 10861, "\u00b7": 1087, "##nco": 15305, "##ggio": 20650, "##lass": 27102, "choked": 12444, "##\u4e0d": 30270, "attends": 23933, "chord": 13924, "regrets": 23161, "set": 2275, "nouvelle": 25207, "instrument": 6602, "execute": 15389, "\u2011": 1514, "pegasus": 26606, "solvent": 23735, "##ales": 23266, "seriously": 5667, "cannon": 8854, "antiquities": 21387, "##him": 14341, "##lee": 10559, "uptown": 28539, "nor": 4496, "outskirts": 12730, "##bl": 16558, "##use": 8557, "upscale": 28276, "##elt": 20042, "[unused964]": 969, "##layer": 24314, "hm": 20287, "translator": 11403, "[unused485]": 490, "embracing": 23581, "2009": 2268, "280": 13427, "flavors": 26389, "reinforcement": 23895, "##dled": 20043, "1779": 17616, "breakup": 19010, "medieval": 5781, "mantle": 16019, "yes": 2748, "happening": 6230, "sociologist": 25106, "walked": 2939, "rehearsals": 24760, "vamp": 20279, "operating": 4082, "bonnet": 24367, "buddha": 11903, "perfume": 17013, "##iography": 26535, "benji": 27231, "barbarians": 28056, "antilles": 27695, "distant": 6802, "##rter": 19418, "shaky": 15311, "cozy": 26931, "books": 2808, "timothy": 10805, "amar": 23204, "1717": 27525, "hilbert": 27434, "surprised": 4527, "prediction": 17547, "1855": 8492, "stroke": 6909, "##\u5b66": 30343, "##gging": 12588, "##rank": 26763, "significantly": 6022, "markings": 13967, "3000": 11910, "legally": 10142, "tamil": 6008, "pg": 18720, "productivity": 15836, "workings": 24884, "forcing": 6932, "claude": 8149, "##words": 22104, "radical": 7490, "grumbled": 17030, "[unused287]": 292, "\u56db": 1798, "mt": 11047, "\u0ca8": 1400, "actions": 4506, "##\u043e": 14150, "hal": 11085, "##kko": 22426, "1899": 6166, "[unused864]": 869, "renumbered": 27855, "quota": 20563, "regimes": 25228, "neighbor": 11429, "residency": 14079, "schneider": 15159, "##ional": 19301, "orientation": 10296, "posting": 14739, "lana": 16554, "repression": 22422, "##ains": 28247, "karachi": 15381, "founder": 3910, "barnes": 9957, "hardin": 27522, "incapable": 19907, "requesting": 17942, "plane": 4946, "##iol": 20282, "##mament": 28119, "accents": 24947, "##\u20b1": 30103, "nodded": 3368, "ballard": 21896, "[unused276]": 281, "##ola": 6030, "congregational": 20809, "[unused479]": 484, "patent": 7353, "winds": 7266, "mls": 16287, "chill": 10720, "##uder": 29190, "warmth": 8251, "taxon": 28521, "diet": 8738, "altitude": 7998, "##linger": 23101, "exhibit": 8327, "##his": 24158, "##\u02e4": 29719, "amadeus": 27185, "costume": 9427, "##hee": 21030, "pew": 29071, "[unused293]": 298, "dresses": 14464, "warned": 7420, "pussy": 22418, "steaming": 19986, "[unused882]": 887, "moffat": 28528, "instrumentation": 16015, "regarded": 5240, "nedra": 28240, "far": 2521, "aim": 6614, "radiation": 8249, "heats": 18559, "cheek": 5048, "privileged": 21598, "morphology": 19476, "sands": 13457, "[unused503]": 508, "assign": 23911, "pe": 21877, "abrupt": 18772, "parasites": 23996, "##tagram": 23091, "}": 1065, "[unused335]": 340, "lavish": 22689, "picked": 3856, "debbie": 16391, "\u0965": 1345, "1936": 4266, "snowfall": 26043, "silva": 11183, "locke": 18343, "passengers": 5467, "wiping": 14612, "[unused34]": 35, "hawaiian": 12188, "buffer": 17698, "contemporaries": 16682, "155": 14168, "##ni": 3490, "surrender": 7806, "mansions": 26842, "oils": 20631, "songwriters": 20602, "biomass": 28148, "taluka": 29512, "meng": 27955, "mean": 2812, "##\u1d50": 30038, "footprints": 24629, "##hong": 19991, "anchorage": 21086, "[unused138]": 143, "fredrik": 25454, "barron": 23594, "overthrow": 16857, "##uz": 17040, "cursed": 10678, "\u52dd": 1780, "ruth": 7920, "1747": 24522, "##hini": 20535, "##yya": 19903, "airborne": 10519, "shown": 3491, "olive": 9724, "##hett": 28499, "shoreline": 17721, "pike": 12694, "fatally": 26292, "\u0997": 1355, "tangent": 27250, "riddle": 21834, "pro": 4013, "clutch": 15357, "beauty": 5053, "child": 2775, "sudanese": 25603, "enjoyable": 22249, "bison": 22285, "veteran": 8003, "scholars": 5784, "are": 2024, "dangers": 16796, "developing": 4975, "##rine": 11467, "remote": 6556, "transmitters": 26288, "[unused155]": 160, "sloping": 24724, "wrap": 10236, "danish": 5695, "57th": 28623, "thereof": 21739, "bandage": 24446, "reviewer": 12027, "react": 10509, "##rina": 11796, "delivered": 5359, "intercity": 20651, "##tops": 25181, "##\u5dde": 30362, "fanny": 17813, "reclaimed": 23119, "lb": 6053, "functionality": 15380, "\u4e0d": 1744, "##lich": 18337, "##\u0917": 29853, "captures": 19566, "[unused236]": 241, "[unused722]": 727, "there": 2045, "tc": 22975, "slams": 25967, "wat": 28194, "[unused496]": 501, "mayo": 14415, "murmured": 7152, "##bia": 11607, "underwear": 14236, "colon": 16844, "helium": 22764, "nyu": 27935, "\u056b": 1225, "exclaimed": 12713, "##ute": 10421, "firearm": 23646, "posthumously": 12770, "##pio": 22071, "grassland": 20331, "##iers": 10136, "##grant": 18980, "similarities": 12319, "##nch": 12680, "scully": 25686, "logic": 7961, "democrats": 8037, "74": 6356, "advocating": 20324, "amino": 13096, "matthias": 17885, "##smith": 21405, "produce": 3965, "[unused608]": 613, "shouts": 15701, "huddersfield": 19715, "attained": 12754, "generator": 13103, "tile": 14090, "weekly": 4882, "regina": 12512, "##eke": 23941, "coe": 24873, "sac": 17266, "need": 2342, "taut": 21642, "hook": 8103, "luzon": 21622, "##\u570b": 30326, "nobody": 6343, "more": 2062, "1300": 19527, "##\u05dd": 29800, "cs": 20116, "##58": 27814, "reluctant": 11542, "##iba": 18410, "jenkins": 11098, "intervention": 8830, "curated": 17940, "possessing": 18840, "steiner": 21264, "biotechnology": 20353, "\u1102": 1456, "hugo": 9395, "1a": 20720, "cheney": 23745, "recreated": 29414, "controls": 7711, "meyrick": 15228, "martin": 3235, "shot": 2915, "tatar": 29241, "confronting": 26964, "sanskrit": 11353, "atlantis": 16637, "##ul": 5313, "ninth": 6619, "chalmers": 29069, "baseline": 26163, "existence": 4598, "piracy": 24386, "254": 22234, "sings": 10955, "preserving": 15224, "libya": 12917, "hits": 4978, "ripple": 24644, "four": 2176, "##tein": 9589, "##tream": 25379, "batted": 12822, "barns": 25684, "informal": 11900, "[unused695]": 700, "regression": 26237, "[unused908]": 913, "smeared": 25400, "##dev": 24844, "deployed": 7333, "prisons": 15996, "traumatic": 19686, "homestead": 14473, "farrell": 16248, "charleston": 10907, "rolling": 5291, "penalty": 6531, "bombings": 20109, "cobb": 17176, "fairfield": 18986, "##cation": 10719, "cruelty": 18186, "rated": 6758, "soloists": 27516, "140": 8574, "outlets": 11730, "##pace": 15327, "##usia": 24118, "##lwyn": 29287, "cypriot": 18543, "##vana": 27313, "feast": 9831, "seizure": 18634, "##bm": 25526, "col": 8902, "stretched": 7121, "insects": 9728, "mathew": 25436, "barton": 12975, "[unused747]": 752, "##ari": 8486, "world": 2088, "intelligence": 4454, "linen": 17517, "stab": 17079, "##aco": 22684, "provoke": 27895, "ship": 2911, "sucks": 19237, "##heimer": 18826, "soyuz": 29412, "jarvis": 21072, "marta": 18950, "tau": 19982, "bavarian": 15097, "buick": 28865, "armistice": 19125, "mechanically": 27846, "##acker": 25418, "intentionally": 15734, "regards": 12362, "gearbox": 22227, "##cine": 16567, "##\u30bf": 30235, "establish": 5323, "\u092f": 1332, "singer": 3220, "\u11b8": 1488, "adored": 28456, "sergeant": 6722, "damages": 12394, "freaks": 29526, "rests": 16626, "##inium": 27585, "##bek": 24597, "feat": 8658, "\u2071": 1537, "1912": 4878, "software": 4007, "##\u0923": 29858, "bowen": 16208, "253": 23254, "onboard": 27120, "##ppet": 29519, "launcher": 22742, "1695": 29140, "celebrates": 21566, "carbonate": 26427, "moore": 5405, "##ump": 24237, "ceremonial": 12961, "palazzo": 18482, "semifinals": 8565, "##\u1167": 30010, "cass": 16220, "displacement": 13508, "hating": 22650, "[unused106]": 111, "ebert": 22660, "inflammation": 21733, "reddy": 18998, "performances": 4616, "monument": 6104, "vita": 19300, "ranks": 6938, "coroner": 22896, "show": 2265, "bassett": 28303, "freddy": 19343, "montevideo": 22460, "##gram": 13113, "dexter": 14375, "##8th": 28264, "##ographic": 13705, "dry": 4318, "photographic": 12416, "investing": 19920, "yoo": 26823, "empowered": 26480, "gerard": 11063, "##jad": 27875, "minutes": 2781, "monarchy": 12078, "mckay": 16225, "obligatory": 26471, "##hall": 9892, "vocal": 5554, "www": 7479, "\u09a5": 1363, "law": 2375, "finalized": 23575, "##ce": 3401, "essay": 9491, "##hoe": 14490, "\u09af": 1371, "laboratory": 5911, "##rb": 15185, "remainder": 6893, "scale": 4094, "blanche": 18158, "temper": 12178, "tariff": 23234, "if": 2065, "persecution": 14522, "passion": 6896, "doo": 20160, "tighter": 12347, "##mar": 7849, "lieutenant": 3812, "##esa": 22447, "[unused556]": 561, "[unused738]": 743, "##\u2218": 30126, "barley": 21569, "longtime": 11155, "##sau": 23823, "hamburg": 8719, "basil": 14732, "slug": 23667, "##bill": 24457, "##chia": 20881, "##ffa": 20961, "leaned": 4016, "shropshire": 19322, "##arty": 23871, "citizen": 6926, "isolation": 12477, "afc": 10511, "1630": 24994, "##\u092c": 29865, "gets": 4152, "tip": 5955, "##rag": 29181, "elevations": 18166, "##\u222a": 30132, "amin": 24432, "townsville": 27492, "earn": 7796, "\u4e0b": 1743, "varied": 9426, "1887": 6837, "intercontinental": 18725, "compassionate": 29353, "adler": 17969, "deteriorated": 20111, "criticized": 6367, "cheese": 8808, "gone": 2908, "tammy": 19971, "leukemia": 25468, "ace": 9078, "298": 27240, "sufficiently": 12949, "elmer": 21464, "unesco": 12239, "curses": 23897, "throws": 11618, "##_": 29638, "[unused140]": 145, "dickson": 22076, "beloved": 11419, "interesting": 5875, "difficulties": 8190, "yin": 18208, "88": 6070, "\u093f": 1341, "##sei": 20240, "rodeo": 18936, "branding": 16140, "value": 3643, "##bi": 5638, "##rin": 6657, "clumsy": 22902, "[unused317]": 322, "oblast": 10379, "francis": 4557, "##ount": 21723, "bother": 8572, "situ": 26179, "##dies": 18389, "pastoral": 13645, "extremes": 28800, "\u5409": 1793, "forcefully": 23097, "##rah": 10404, "1830s": 20400, "vaguely": 15221, "rhapsody": 29395, "1985": 3106, "tumors": 21434, "northward": 17192, "yelling": 13175, "##ances": 26755, "census": 2883, "forbes": 10822, "[unused634]": 639, "costello": 21015, "##hima": 16369, "encourage": 8627, "talon": 19048, "lighthouse": 10171, "cha": 15775, "knock": 7324, "kosovo": 11491, "sears": 18493, "##ioned": 19798, "parliamentary": 5768, "emphasis": 7902, "##kovich": 28195, "##ador": 26467, "##ctuated": 25638, "teammate": 10809, "foreword": 23059, "tremendous": 14388, "kerry": 11260, "beatty": 27305, "alec": 9752, "rendered": 10155, "extends": 8908, "1600": 14883, "klan": 26613, "ether": 28855, "six": 2416, "soothe": 28384, "equipment": 3941, "externally": 27223, "suggestion": 10293, "penetrate": 19136, "##eld": 14273, "\u026f": 1122, "omaha": 12864, "gatherings": 21403, "eng": 25540, "##rio": 9488, "comply": 14037, "avail": 24608, "permanently": 8642, "aw": 22091, "[unused57]": 58, "factors": 5876, "volcanoes": 23694, "provide": 3073, "##eras": 24140, "bark": 11286, "scents": 29254, "wavy": 23098, "real": 2613, "configurations": 22354, "##vision": 17084, "usl": 22448, "##entes": 26933, "##sta": 9153, "geologist": 21334, "lest": 26693, "consul": 11801, "##50": 12376, "excel": 24970, "[unused939]": 944, "great": 2307, "compulsion": 27638, "##opus": 24676, "##\u304a": 30176, "##ste": 13473, "##haven": 14650, "restraints": 28054, "fordham": 27302, "hunts": 28526, "efficacy": 21150, "suggested": 4081, "peaked": 6601, "9th": 6280, "##t": 2102, "ford": 4811, "##iling": 16281, "taiwan": 6629, "tentacles": 24719, "citrus": 20418, "##ug": 15916, "min": 8117, "\u00a2": 1068, "hawker": 23937, "crusade": 16282, "##rey": 15202, "wonderland": 20365, "hometown": 9627, "##rden": 18246, "lyrical": 16376, "wash": 9378, "millions": 8817, "accuse": 26960, "[unused808]": 813, "consistently": 10862, "ezra": 16245, "aback": 26575, "mueller": 26774, "accessory": 25339, "angels": 7048, "carleton": 22273, "isis": 18301, "##\u3009": 30164, "peel": 14113, "##bies": 20536, "[unused960]": 965, "bolivian": 26075, "reasoning": 13384, "humid": 14178, "##lore": 20186, "##ices": 23522, "##nac": 18357, "effect": 3466, "leadership": 4105, "ordinary": 6623, "holm": 28925, "\u529b": 1778, "mount": 4057, "circular": 8206, "##lb": 20850, "trial": 3979, "establishment": 5069, "##tern": 16451, "oaxaca": 26923, "flawed": 25077, "spot": 3962, "##rsk": 27472, "antwerp": 14003, "gin": 18353, "selector": 27000, "sweetie": 22872, "##\u0582": 29785, "##anna": 25789, "newton": 8446, "##cats": 19588, "##ond": 15422, "##miento": 28883, "spatial": 13589, "##52": 25746, "##arian": 12199, "seem": 4025, "wayne": 6159, "manitoba": 10512, "##nett": 15361, "coding": 16861, "sheep": 8351, "\uff0c": 1989, "koreans": 24651, "fallout": 23902, "mohammad": 12050, "##rov": 12298, "supplied": 8127, "pudding": 29593, "talked": 5720, "orphan": 18211, "##pen": 11837, "##upt": 29441, "record": 2501, "nicknamed": 9919, "knitting": 26098, "complexion": 28838, "attache": 29489, "aziz": 21196, "cards": 5329, "jurisdiction": 7360, "ritchie": 20404, "3": 1017, "##unas": 23904, "cup": 2452, "glanced": 3887, "flanking": 24958, "j": 1046, "fluid": 8331, "concord": 16557, "prompted": 9469, "witch": 6965, "##carriage": 21539, "\u2190": 1583, "holes": 8198, "[unused952]": 957, "##oya": 18232, "dispute": 7593, "\u624c": 1859, "drink": 4392, "discreet": 29321, "declaring": 13752, "##idge": 13623, "square": 2675, "pondered": 28347, "storylines": 22628, "popped": 10538, "000": 2199, "price": 3976, "##\u4e8b": 30277, "housed": 7431, "[unused692]": 697, "dissolution": 12275, "semantics": 28081, "harassment": 16011, "techniques": 5461, "chateau": 11874, "spec": 28699, "satisfaction": 9967, "providing": 4346, "\u09a3": 1361, "a": 1037, "##shaft": 25679, "saddam": 24111, "whitehall": 28361, "##p": 2361, "undermine": 25174, "creeks": 24974, "foreigners": 15040, "beast": 6841, "brenda": 15507, "mini": 7163, "\u0268": 1118, "immortal": 12147, "interact": 11835, "flashback": 21907, "##bled": 23242, "##onate": 21149, "tucson": 17478, "hays": 29051, "matrices": 21520, "incorporate": 13265, "[unused379]": 384, "coli": 27441, "wang": 7418, "substrates": 23725, "##iot": 25185, "##cle": 14321, "whereby": 13557, "scripture": 18919, "khalid": 21828, "amassed": 22151, "qui": 21864, "wade": 10653, "good": 2204, "##nza": 16786, "parody": 12354, "landscape": 5957, "##asse": 27241, "\u2082": 1549, "thinking": 3241, "##cheon": 28099, "##tized": 23355, "##vis": 11365, "applied": 4162, "articulated": 20742, "fielded": 20988, "sixteen": 7032, "sandy": 7525, "polish": 3907, "crops": 8765, "georgia": 4108, "evening": 3944, "cardinals": 9310, "deals": 9144, "##ai": 4886, "roanoke": 25899, "##keeper": 13106, "airplanes": 24042, "chestnut": 15655, "ang": 17076, "jacksonville": 13057, "##ider": 18688, "10": 2184, "colbert": 23928, "##stered": 24167, "##ffle": 18142, "##tson": 25656, "##tens": 25808, "##\u1d62": 19109, "\u5bfa": 1827, "starters": 29400, "levy": 12767, "pops": 16949, "decorated": 7429, "##len": 7770, "##llus": 20159, "unique": 4310, "rhythms": 17900, "creaked": 28068, "aiming": 13659, "##iidae": 15648, "minimize": 18478, "callum": 15229, "aspiring": 22344, "shielded": 25474, "surname": 11988, "##nami": 28987, "tessa": 13167, "machinery": 10394, "dies": 8289, "[unused390]": 395, "pornography": 19378, "130": 7558, "subfamily": 10946, "##\u30e2": 30253, "##riam": 25557, "##pe": 5051, "uganda": 10031, "agony": 12812, "computational": 15078, "##iest": 10458, "guessing": 16986, "staunch": 26355, "gunshot": 22077, "##dern": 25888, "blend": 12586, "waterways": 21938, "archdiocese": 12658, "subsided": 26588, "stellar": 17227, "armand": 20371, "tailed": 14578, "failures": 15428, "[unused783]": 788, "session": 5219, "##dai": 21351, "brighter": 16176, "railroads": 16197, "donate": 21357, "##star": 14117, "airline": 8582, "maintaining": 8498, "1825": 11384, "baja": 19497, "appalachian": 19682, "\u1d49": 1499, "directing": 9855, "gunslinger": 29274, "headwaters": 25345, "mcdonnell": 23149, "[unused550]": 555, "##nally": 26827, "scottish": 4104, "\u0630": 1279, "cid": 28744, "constitutional": 6543, "bladed": 27402, "blessing": 13301, "doctorate": 8972, "upright": 10051, "pumping": 14107, "gained": 4227, "baggage": 20220, "\u11ab": 1485, "introduce": 8970, "ellington": 21630, "papacy": 25097, "condemn": 28887, "twist": 9792, "ohio": 4058, "snyder": 17840, "lumber": 13891, "jaws": 16113, "##ryn": 18143, "tong": 15740, "loans": 10940, "primal": 22289, "occurrences": 27247, "##oss": 15094, "\u300c": 1641, "ignorant": 21591, "##rgeon": 28242, "matteo": 24713, "leveled": 22915, "expressing": 14026, "relational": 28771, "hostage": 13446, "##erland": 22492, "ridiculous": 9951, "tulane": 27437, "exposure": 7524, "jupiter": 13035, "nixon": 11296, "##ber": 5677, "[unused566]": 571, "enables": 12939, "privilege": 14293, "ks": 29535, "##lio": 12798, "sanctions": 17147, "[unused990]": 995, "\u1100": 1455, "ciudad": 20759, "guitarist": 5990, "freeing": 22198, "richards": 9712, "^": 1034, "almost": 2471, "nik": 23205, "tumor": 13656, "amir": 18904, "bulldogs": 15120, "tigers": 7600, "explored": 10641, "\u1d30": 1492, "informant": 28694, "sin": 8254, "handler": 28213, "functioning": 12285, "[unused66]": 67, "atlantic": 4448, "divisional": 14167, "auditorium": 11448, "aden": 16298, "honored": 8686, "experimented": 20918, "alive": 4142, "bonuses": 29563, "indicted": 21801, "roach": 20997, "davis": 4482, "destined": 16036, "thankfully": 16047, "granny": 19794, "maris": 23787, "logs": 15664, "preacher": 14512, "sheltered": 18304, "verify": 20410, "[unused345]": 350, "medications": 20992, "\u0434": 1184, "[unused153]": 158, "praised": 5868, "conner": 17639, "nah": 20976, "goldman": 17765, "##-": 29624, "variability": 28436, "imagery": 13425, "##mering": 27851, "assure": 14306, "infants": 16725, "[unused943]": 948, "opposite": 4500, "moe": 22078, "reign": 5853, "slapping": 22021, "ascot": 29036, "##isen": 28992, "budgets": 26178, "\u0435": 1185, "shifters": 21537, "rockwell": 25235, "catherine": 6615, "##orth": 28610, "interrogation": 16871, "sunset": 10434, "educators": 19156, "1732": 27582, "\u0433": 1183, "refugees": 8711, "valves": 17355, "insist": 18292, "sellers": 19041, "hoped": 5113, "##dong": 17679, "batteries": 10274, "##\u0142a": 22972, "mccartney": 15320, "martinique": 29365, "\u0e2a": 1420, "otto": 8064, "viet": 19710, "karlsruhe": 26660, "matching": 9844, "20s": 27074, "##say": 24322, "wendy": 12815, "jackson": 4027, "m\u00b3": 14241, "##ishly": 19983, "kitten": 18401, "[unused640]": 645, "conan": 16608, "temperament": 26270, "within": 2306, "khalifa": 27925, "iron": 3707, "defenders": 12534, "##tist": 16774, "colleague": 11729, "asset": 11412, "caste": 14542, "spoiled": 19582, "cinematic": 21014, "gloves": 11875, "kidding": 12489, "southernmost": 21787, "shorts": 9132, "disappeared": 5419, "inventor": 12235, "penn": 9502, "[unused170]": 175, "commonwealth": 5663, "1903": 5778, "##itical": 26116, "unlocked": 14058, "[unused828]": 833, "dark": 2601, "starved": 26042, "bo": 8945, "nodding": 11863, "pushes": 13956, "debuting": 24469, "##sop": 28793, "assam": 15181, "grocery": 13025, "##anto": 21634, "1603": 25625, "skimmed": 28862, "battleship": 17224, "##rne": 12119, "[unused19]": 20, "##sberg": 11711, "bt": 18411, "averages": 20185, "[unused142]": 147, "sparkled": 28092, "illustration": 14614, "\u2202": 1592, "transcribed": 26223, "screened": 12238, "shrieked": 22383, "##\u7af9": 30459, "chosen": 4217, "194": 19955, "##\u30eb": 30259, "##chase": 26300, "correlation": 16902, "hara": 18820, "violation": 11371, "maxwell": 10691, "less": 2625, "\u65b9": 1863, "##\u6f22": 30430, "##rain": 21166, "lined": 7732, "rosalie": 29564, "##\u2032": 30066, "kiev": 12100, "danzig": 26669, "juniper": 29425, "springs": 6076, "##nessy": 25441, "bomber": 9472, "rebels": 8431, "##anga": 18222, "vocalists": 27478, "piece": 3538, "##bert": 8296, "harvested": 22629, "lead": 2599, "rochester": 10541, "cambridgeshire": 24197, "talking": 3331, "bowl": 4605, "##ik": 5480, "commission": 3222, "comparison": 7831, "academia": 16926, "alberto": 12007, "##ilde": 23891, "joao": 16304, "southend": 26104, "##ovo": 16059, "plus": 4606, "mumbled": 11567, "upstairs": 8721, "bishop": 3387, "choreography": 16967, "raw": 6315, "\u30a4": 1695, "jalan": 28410, "##rt": 5339, "visitors": 5731, "uniformed": 25189, "marathi": 18388, "wellesley": 25658, "ally": 9698, "ferocious": 27863, "niccolo": 27033, "acknowledges": 28049, "icons": 18407, "oak": 6116, "domination": 17882, "martyr": 17216, "##igh": 18377, "creditors": 23112, "post": 2695, "##zel": 12638, "wheelbase": 29141, "prayers": 12583, "made": 2081, "naturalized": 27558, "influential": 6383, "recovered": 6757, "doubt": 4797, "general": 2236, "amplitude": 22261, "armando": 26716, "insurance": 5427, "[unused844]": 849, "formidable": 18085, "guru": 11972, "##ix": 7646, "conquest": 9187, "peer": 8152, "rejecting": 21936, "buzz": 12610, "ak": 17712, "[unused540]": 545, "bao": 25945, "##veda": 28614, "trip": 4440, "gritted": 17307, "psychological": 8317, "italians": 16773, "plantation": 10065, "\u1105": 1458, "finest": 10418, "armory": 24139, "audio": 5746, "require": 5478, "beth": 7014, "arguably": 15835, "intimately": 29024, "pursued": 9505, "treaty": 5036, "trombone": 13914, "##lence": 22717, "reyes": 12576, "ensure": 5676, "nils": 27282, "contamination": 18701, "canadiens": 21247, "conserve": 27749, "emerge": 12636, "disregard": 27770, "bills": 8236, "##wicz": 21355, "severe": 5729, "lau": 21360, "poetry": 4623, "derbyshire": 15207, "[unused381]": 386, "ting": 28642, "##xa": 18684, "burst": 6532, "fastest": 7915, "inception": 12149, "copied": 15826, "talmud": 24380, "supporter": 10129, "implement": 10408, "giving": 3228, "hanging": 5689, "nursing": 8329, "enabled": 9124, "builds": 16473, "eireann": 29157, "argus": 25294, "educated": 5161, "regulators": 25644, "thematic": 23539, "spielberg": 28740, "adjective": 24931, "308": 24232, "limestone": 9771, "derived": 5173, "ivy": 7768, "swung": 7671, "somali": 16831, "behind": 2369, "canberra": 13107, "sour": 14768, "goa": 15244, "22": 2570, "ptolemy": 23517, "tran": 25283, "moreno": 17921, "ratios": 21879, "##\u0292": 29704, "airship": 27636, "[unused182]": 187, "1712": 28460, "rookie": 8305, "unlawful": 22300, "cut": 3013, "\u301c": 1645, "neglect": 19046, "praise": 8489, "delle": 24121, "office": 2436, "[unused154]": 159, "intending": 16533, "##ouk": 27967, "##mberg": 29084, "discs": 15303, "revised": 8001, "whatsoever": 18971, "occupation": 6139, "gigantic": 20193, "brest": 22451, "tierney": 26198, "\u4ebb": 1757, "##\u9ad8": 30507, "archipelago": 13888, "##stic": 10074, "barbarian": 25075, "photograph": 9982, "peninsular": 22682, "##ch": 2818, "textbook": 16432, "yourself": 4426, "ravi": 16806, "survivors": 8643, "##down": 7698, "mclaughlin": 23720, "1863": 6899, "\u767d": 1915, "definitions": 15182, "place": 2173, "350": 8698, "apartments": 9620, "##worthy": 13966, "chloe": 9318, "frontal": 19124, "spartan": 20670, "unusual": 5866, "until": 2127, "unmanned": 24075, "199": 20713, "segregated": 24382, "\u00b9": 1088, "##mere": 13759, "##hana": 15788, "dina": 26146, "##ull": 18083, "always": 2467, "tentative": 19943, "jewish": 3644, "opposition": 4559, "harrington": 19760, "[unused759]": 764, "arm": 2849, "\u9fb8": 1983, "stake": 8406, "poured": 8542, "violinist": 16609, "grinning": 11478, "dashboard": 24923, "champions": 3966, "vowels": 15260, "##bling": 9709, "##hg": 25619, "references": 7604, "##ron": 4948, "\u30af": 1702, "miniature": 12973, "microphone": 15545, "##face": 12172, "tuesday": 9857, "##6": 2575, "ur": 24471, "##\u00dfe": 17499, "interspersed": 25338, "hanna": 10579, "cyrus": 16123, "fires": 8769, "muscular": 13472, "##tat": 29336, "confesses": 22826, "chemist": 15535, "yeomanry": 26883, "lesbian": 11690, "220": 10545, "ligand": 27854, "##wine": 21924, "walls": 3681, "marshes": 19257, "capitalism": 16498, "##obe": 20891, "viewers": 7193, "1906": 5518, "eton": 21687, "sabre": 22002, "##35": 19481, "painting": 4169, "redhead": 26705, "##lge": 28875, "city": 2103, "##erty": 15010, "##eber": 22669, "raining": 24057, "ammunition": 9290, "shared": 4207, "central": 2430, "heritage": 4348, "mild": 10256, "##\u0575": 29777, "test": 3231, "##mc": 12458, "vowed": 18152, "brick": 5318, "newtown": 26382, "mario": 7986, "represents": 5836, "teachers": 5089, "reorganized": 14137, "##\u0448": 29753, "shortages": 22623, "isabella": 10323, "statement": 4861, "##ones": 21821, "eyes": 2159, "daughter": 2684, "bmg": 24499, "richie": 14411, "captives": 21496, "td": 14595, "jedi": 27273, "synonym": 10675, "survives": 13655, "stifled": 27146, "mc": 11338, "mod": 16913, "norwegian": 5046, "mons": 29408, "##eme": 21382, "boats": 6242, "arya": 26140, "distinguishes": 27343, "nes": 24524, "##logram": 24915, "blush": 16688, "shiny": 12538, "balancing": 20120, "luftwaffe": 17740, "common": 2691, "signalling": 21919, "clade": 21697, "engaging": 11973, "pushed": 3724, "swan": 10677, "48": 4466, "##carbon": 26190, "bail": 15358, "1700": 16601, "sunshine": 9609, "islamist": 27256, "richter": 20105, "cary": 20533, "polls": 14592, "##\u0430": 10260, "mysteries": 15572, "1992": 2826, "affection": 12242, "bourne": 15803, "timetable": 23839, "believe": 2903, "coca": 16787, "valid": 9398, "specimen": 11375, "coasts": 20266, "consulting": 10552, "otherwise": 4728, "##hawk": 17998, "\u4e09": 1741, "##form": 14192, "aux": 19554, "rightful": 27167, "liquids": 26820, "##15": 16068, "##erted": 28728, "competed": 3879, "immigrated": 17352, "##ion": 3258, "militia": 8396, "monsoon": 19183, "##\u52a0": 30305, "infectious": 16514, "believers": 20373, "##raus": 25965, "iucn": 20333, "romani": 23982, "##mus": 7606, "##factory": 21450, "stockholm": 8947, "staircase": 10714, "michelle": 9393, "##hus": 9825, "[unused163]": 168, "[unused748]": 753, "organist": 16397, "resemblance": 14062, "hyun": 21108, "piled": 17835, "kidd": 25358, "##bol": 14956, "discharge": 11889, "##od": 7716, "sylvester": 20016, "guitars": 7334, "1782": 16890, "tobin": 28096, "continuing": 5719, "departments": 7640, "etymology": 26803, "unopposed": 17123, "dal": 17488, "rob": 6487, "interdisciplinary": 18593, "grapes": 16575, "##ited": 17572, "##zzled": 17269, "establishing": 7411, "mundane": 24684, "77": 6255, "reacts": 27325, "elliott": 9899, "interviewing": 27805, "1827": 12309, "homemade": 25628, "geek": 29294, "##sti": 16643, "stirling": 15597, "##pheus": 22809, "mega": 13164, "##jured": 26949, "refrain": 20703, "botswana": 19414, "barangay": 20937, "exploring": 11131, "sect": 17831, "ideally": 28946, "hesitant": 20221, "decca": 21079, "ragged": 14202, "\u0578": 1232, "type": 2828, "requires": 5942, "periodically": 18043, "criticised": 10648, "##\uff0d": 30516, "##rked": 19849, "shaped": 5044, "hoax": 28520, "undergone": 17215, "[unused530]": 535, "about": 2055, "chopin": 25479, "steppe": 29096, "fang": 15197, "450": 10332, "aisle": 12485, "##islaus": 25678, "myles": 27056, "plc": 15492, "jackets": 17764, "motionless": 19917, "##\u092d": 29866, "##xton": 14226, "zombie": 11798, "##rf": 12881, "vase": 18781, "deported": 17929, "##tow": 18790, "observer": 9718, "arab": 5424, "moth": 5820, "##ily": 6588, "steals": 15539, "reset": 25141, "##gn": 16206, "##\u1103": 29993, "honorable": 13556, "##lings": 11227, "novella": 20674, "connector": 19400, "clock": 5119, "stealing": 11065, "commencement": 20561, "reginald": 14435, "realize": 5382, "##riding": 21930, "pockets": 10306, "\u0917": 1317, "\u00a4": 1070, "porsche": 16099, "bromley": 27979, "##ines": 10586, "agriculture": 5237, "routes": 5847, "decorative": 11584, "titan": 16537, "reviewed": 8182, "\u2113": 1577, "workout": 27090, "np": 27937, "stepfather": 21481, "campaigning": 18524, "##sby": 14478, "kannada": 13873, "contempt": 17152, "filters": 17736, "push": 5245, "davies": 9082, "georgetown": 12982, "##holder": 14528, "[unused158]": 163, "user": 5310, "2002": 2526, "experts": 8519, "##fall": 13976, "kern": 22762, "##van": 6212, "##air": 11215, "##udy": 20217, "mats": 22281, "warner": 6654, "gould": 14913, "compensated": 29258, "veterinary": 15651, "##owing": 14138, "statistics": 6747, "avoiding": 9992, "stony": 16104, "\u110b": 1463, "petrol": 17141, "beaver": 13570, "vain": 15784, "governments": 6867, "smiley": 27420, "##stov": 29473, "##mic": 7712, "enable": 9585, "\u09ad": 1369, "sink": 7752, "toulouse": 17209, "extinction": 14446, "repeatedly": 8385, "seth": 6662, "alderman": 18977, "memorabilia": 28663, "crisis": 5325, "portuguese": 5077, "explained": 4541, "taxa": 23726, "bien": 29316, "\u6c35": 1894, "con": 9530, "parked": 9083, "##abia": 29039, "canning": 24549, "##vier": 14356, "advances": 9849, "africans": 18076, "marking": 10060, "computing": 9798, "skull": 7412, "restraint": 19355, "illustrating": 28252, "164": 17943, "[unused108]": 113, "[unused405]": 410, "simultaneous": 17424, "mann": 10856, "junior": 3502, "tie": 5495, "chris": 3782, "outlined": 14801, "##tric": 12412, "pavel": 18635, "backgrounds": 15406, "##dorff": 26559, "reinforce": 19444, "narratives": 22143, "derelict": 28839, "buds": 26734, "novels": 6002, "steven": 7112, "commonplace": 27550, "squeezed": 7757, "blooms": 29037, "cultural": 3451, "aircraft": 2948, "envelope": 11255, "surround": 15161, "##\u8a01": 30475, "##\u028e": 29701, "classmate": 23175, "directly": 3495, "quantity": 11712, "\u6b62": 1887, "lunch": 6265, "hellenistic": 27464, "##dler": 21222, "swirling": 16499, "darren": 12270, "##station": 20100, "##gl": 23296, "domes": 26193, "162": 17832, "hampered": 22532, "##\u044e": 29757, "##wal": 13476, "##\u0905": 29847, "piston": 16733, "##auer": 21126, "connecticut": 6117, "1958": 3845, "adoptive": 24787, "treatise": 15326, "size": 2946, "##hog": 25852, "approximation": 20167, "##rid": 14615, "researching": 20059, "thanks": 4283, "stronghold": 16995, "##isha": 24032, "adjoining": 13562, "exceeded": 14872, "susquehanna": 26361, "##posed": 19155, "appealing": 16004, "deliver": 8116, "##room": 9954, "##ner": 3678, "choir": 6596, "campuses": 13696, "##eria": 11610, "##ats": 11149, "prasad": 17476, "amateur": 5515, "rae": 14786, "##anor": 27869, "twelve": 4376, "moss": 10636, "[unused517]": 522, "recent": 3522, "##inton": 27028, "##ge": 3351, "seamus": 24993, "mckenzie": 18506, "liquid": 6381, "cemeteries": 20973, "vast": 6565, "growing": 3652, "albion": 13392, "##udi": 21041, "##kyu": 23076, "filling": 8110, "1662": 25909, "ortega": 25859, "creepy": 17109, "wreath": 29586, "clerk": 7805, "##tech": 15007, "flashing": 12659, "sociology": 11507, "power": 2373, "##rger": 25858, "tent": 9311, "constellation": 15300, "nationalist": 8986, "activists": 10134, "55th": 29075, "\u1d35": 1493, "##bahn": 16052, "breakdown": 12554, "##mei": 26432, "##uf": 16093, "quake": 27785, "jackie": 9901, "barges": 27712, "cher": 24188, "vantage": 27274, "dictatorship": 18944, "##rrow": 28597, "\u30c8": 1714, "reply": 7514, "concerts": 6759, "meaningless": 25120, "opening": 3098, "deception": 17575, "ferries": 20157, "token": 19204, "partly": 6576, "329": 29567, "\u300f": 1644, "amelie": 25285, "georgian": 9166, "doom": 12677, "wrath": 14532, "away": 2185, "hacking": 23707, "lazy": 13971, "historians": 7862, "##crats": 23423, "pointing": 7302, "sundance": 20140, "[unused270]": 275, "beech": 21760, "downs": 12482, "eight": 2809, "unreleased": 13270, "##org": 21759, "[unused185]": 190, "delegate": 11849, "php": 25718, "transmitting": 23820, "breathless": 16701, "showcase": 13398, "guessed": 11445, "noelle": 22336, "literally": 6719, "dramas": 16547, "cipher": 27715, "engulfed": 24692, "monday": 6928, "rfc": 14645, "##sbury": 18065, "hilltop": 25566, "\u7fa9": 1936, "tricky": 24026, "##roll": 28402, "steps": 4084, "##rgy": 22637, "minneapolis": 11334, "bass": 3321, "##hi": 4048, "publication": 4772, "##icular": 21412, "plush": 27729, "moderate": 8777, "##qui": 15549, "540": 20263, "liz": 9056, "stepmother": 26959, "importance": 5197, "traces": 10279, "##aba": 19736, "boxed": 27554, "shen": 21882, "\u5d0e": 1834, "queensland": 5322, "won": 2180, "unrest": 16591, "craters": 27561, "muir": 23110, "##win": 10105, "andreas": 12460, "##\u611b": 30379, "##kit": 23615, "graduated": 3852, "nigel": 12829, "croatia": 8097, "dh": 28144, "unionist": 17104, "[unused221]": 226, "\u207f": 1546, "ministerial": 18645, "crosses": 7821, "##ls": 4877, "emphasizing": 22671, "mainline": 20575, "blending": 23293, "nicky": 20158, "isabelle": 13942, "restrictions": 9259, "##pling": 14353, "bubbling": 25054, "##ito": 9956, "formula": 5675, "intriguing": 23824, "victims": 5694, "\u2097": 1566, "internship": 22676, "smacked": 19203, "failure": 4945, "shu": 18454, "supervision": 10429, "westward": 15165, "borne": 15356, "stanis\u0142aw": 26133, "\u0e21": 1415, "##bby": 14075, "##cytes": 27321, "scratch": 11969, "##sal": 12002, "y": 1061, "tempest": 22553, "booked": 17414, "mayors": 21941, "##\u2ebc": 30159, "received": 2363, "rehabilitation": 11252, "##ocks": 25384, "##\u6c34": 30419, "miami": 5631, "awaiting": 15497, "boxing": 8362, "hangar": 18284, "emerald": 14110, "mice": 12328, "aviation": 5734, "dan": 4907, "locations": 5269, "gymnast": 25055, "mccann": 28641, "##hara": 11077, "braking": 24427, "leopard": 16240, "centres": 8941, "spokane": 21878, "thieves": 15862, "geared": 23636, "iberian": 21988, "museums": 9941, "consume": 16678, "cartridges": 22998, "domestic": 4968, "tables": 7251, "##\u76f8": 30445, "\u68ee": 1882, "letter": 3661, "initially": 3322, "armenian": 7508, "coordination": 12016, "german": 2446, "sent": 2741, "##'": 29618, "tourism": 6813, "counter": 4675, "lodges": 26767, "typing": 22868, "orthodoxy": 26582, "warehouses": 23319, "fall": 2991, "brow": 8306, "cellular": 12562, "\u2193": 1586, "confronts": 17628, "\u2074": 1538, "patting": 26085, "telegram": 23921, "bring": 3288, "\u211d": 1579, "\u1d3a": 1494, "begun": 5625, "##edes": 18352, "somber": 28587, "hunched": 20498, "##joy": 24793, "\u6587": 1861, "assumption": 11213, "make": 2191, "role": 2535, "phelps": 20475, "iowa": 5947, "mainly": 3701, "##pp": 9397, "reorganisation": 24934, "electrified": 18042, "rapidly": 5901, "masonic": 21152, "adrenaline": 14963, "guardians": 14240, "vishnu": 17647, "magician": 16669, "##for": 29278, "pursuant": 27081, "cosmetics": 25381, "japanese": 2887, "\u0915": 1315, "fossil": 10725, "unitary": 22127, "leighton": 26873, "malta": 9933, "[unused196]": 201, "waterloo": 13784, "sank": 7569, "##man": 2386, "ebook": 26885, "1954": 4051, "milling": 22491, "context": 6123, "madeira": 27309, "[unused508]": 513, "anguish": 21782, "##\u5143": 30295, "[unused48]": 49, "1742": 25704, "expectations": 10908, "[unused988]": 993, "eyebrows": 8407, "##hra": 13492, "tiled": 26510, "trump": 8398, "##ira": 7895, "mead": 19855, "##dit": 23194, "##ece": 26005, "framing": 20241, "ejected": 22607, "beacon": 14400, "\u6728": 1875, "flipped": 9357, "##mx": 22984, "johan": 13093, "##\u062b": 29818, "impatience": 28011, "everything": 2673, "rio": 5673, "inviting": 15085, "bundesliga": 14250, "##nation": 9323, "poet": 4802, "cartoon": 9476, "##\u516c": 30298, "werner": 14121, "variables": 10857, "scarce": 18782, "aspect": 7814, "stacked": 16934, "transmission": 6726, "palace": 4186, "rangers": 7181, "represent": 5050, "outside": 2648, "1955": 3982, "sofie": 26359, "##rill": 24714, "##\u057f": 29783, "liar": 16374, "expected": 3517, "##\u00ab": 29654, "clockwise": 22839, "ga": 11721, "##37": 24434, "spectacular": 12656, "sweating": 18972, "panties": 12095, "rainfall": 10101, "dso": 22951, "consumption": 8381, "uno": 27776, "squadrons": 11435, "\u7684": 1916, "tendencies": 20074, "[unused49]": 50, "##llo": 7174, "holster": 29447, "stern": 8665, "les": 4649, "genetics": 14471, "ad": 4748, "mondays": 28401, "##oot": 17206, "##\u0643": 29835, "seoul": 10884, "montana": 8124, "mer": 21442, "[unused696]": 701, "\u0baa": 1388, "sincerity": 23997, "pollution": 10796, "dalai": 28511, "##ured": 12165, "bahrain": 15195, "mcc": 23680, "##pire": 20781, "kidnapping": 15071, "survey": 5002, "\u798f": 1926, "shotgun": 13305, "pharaoh": 22089, "reissue": 17173, "##ford": 3877, "careers": 10922, "funds": 5029, "##hue": 20169, "blossoms": 28766, "handbook": 14812, "##los": 10483, "##vor": 14550, "wilton": 26407, "solved": 13332, "warwickshire": 18430, "joint": 4101, "##\u03c2": 19579, "##falls": 28067, "##iri": 15735, "##\u0576": 29778, "conflicting": 19326, "##\u0441": 29747, "##bly": 6321, "hubert": 15346, "ion": 10163, "truths": 23019, "middleton": 17756, "suzanne": 15146, "\u1da0": 1512, "moist": 11052, "carolyn": 15611, "spokesperson": 15974, "stimulating": 27295, "f": 1042, "battalion": 4123, "burgess": 17754, "pointed": 4197, "skaters": 24789, "haunting": 20161, "1943": 3826, "jon": 6285, "older": 3080, "fragrance": 24980, "handicapped": 26920, "sans": 20344, "\u2032": 1531, "solo": 3948, "odisha": 21874, "##bing": 10472, "##routed": 25849, "\uff08": 1987, "wolff": 23498, "340": 16029, "##ova": 7103, "##uld": 21285, "bournemouth": 22882, "majority": 3484, "magnus": 10045, "katz": 20729, "scalp": 21065, "correctional": 20873, "bump": 16906, "##cher": 7474, "##ign": 23773, "rugged": 17638, "fountains": 23497, "intra": 26721, "transmissions": 21670, "rejoin": 25261, "prophet": 12168, "forgiveness": 17213, "\u092e": 1331, "##ammed": 27479, "wrestlemania": 28063, "slid": 4934, "formerly": 3839, "fibre": 20962, "##cko": 19665, "lutheran": 10034, "chick": 14556, "troupe": 16017, "\u0443": 1198, "sealing": 23038, "##if": 10128, "[unused365]": 370, "traitor": 17328, "meaning": 3574, "engineer": 3992, "packard": 24100, "capitals": 15433, "pavilion": 10531, "storyline": 9994, "##gne": 10177, "luke": 5355, "python": 18750, "##rda": 13639, "1735": 26063, "ropes": 14607, "merge": 13590, "[unused643]": 648, "##kos": 15710, "1791": 14362, "east": 2264, "financing": 12135, "subway": 10798, "##oration": 21223, "main": 2364, "nine": 3157, "##mart": 22345, "theological": 9208, "##yu": 10513, "weighs": 21094, "propeller": 15692, "learnt": 20215, "dimitri": 15953, "[unused15]": 16, "executive": 3237, "automatically": 8073, "perceive": 23084, "##anne": 20147, "handful": 9210, "acquire": 9878, "\u2606": 1621, "##\u1d57": 30041, "appropriately": 23263, "delta": 7160, "##taff": 22542, "abusive": 20676, "nos": 16839, "funnel": 25102, "corrected": 13371, "##buch": 25987, "interviewed": 10263, "slow": 4030, "\u03bd": 1167, "##\u2217": 30125, "upset": 6314, "salute": 17664, "navajo": 22440, "person": 2711, "##cala": 25015, "dust": 6497, "hummed": 26747, "signaling": 14828, "possesses": 14882, "##gles": 17125, "##\u5f35": 30370, "hurled": 24025, "motivation": 14354, "##ode": 10244, "metal": 3384, "boring": 11771, "controlling": 9756, "##vre": 12229, "##dance": 25514, "announcements": 25674, "1890": 6193, "haute": 18535, "latter": 3732, "unconstitutional": 20454, "##\u06ba": 29843, "moody": 14434, "austrians": 28439, "\u5f35": 1844, "favoured": 16822, "walk": 3328, "mm": 3461, "gerald": 9659, "##hed": 9072, "icelandic": 14024, "crouch": 21676, "behaviour": 9164, "italics": 19408, "[unused645]": 650, "prejudice": 18024, "isn": 3475, "##eche": 27635, "southbound": 19751, "##ttering": 19567, "latvian": 14698, "squared": 19942, "grover": 25242, "fitzpatrick": 26249, "pilgrim": 21214, "inhabitants": 4864, "experiments": 7885, "monarchs": 19799, "jewellery": 21545, "cumberland": 12310, "position": 2597, "diagnostic": 16474, "\u03b2": 1156, "covenant": 16077, "coloring": 22276, "soprano": 10430, "[unused184]": 189, "##ges": 8449, "##bana": 19445, "##oni": 10698, "neo": 9253, "[unused356]": 361, "##ades": 18673, "cater": 23488, "ribbons": 22688, "bringing": 5026, "clipped": 20144, "lady": 3203, "collecting": 9334, "comets": 27138, "winners": 4791, "\u2080": 1547, "##asa": 16782, "blooded": 26064, "##itor": 15660, "clauses": 24059, "attributed": 7108, "habits": 14243, "gangs": 18542, "maneuver": 17519, "##\u300b": 30166, "billed": 14843, "[unused599]": 604, "sound": 2614, "rockies": 22366, "premises": 10345, "ked": 16135, "unlike": 4406, "protesting": 21248, "##adi": 17190, "cromwell": 16759, "somerville": 27209, "rd": 16428, "discourage": 28085, "southwestern": 8772, "bee": 10506, "adding": 5815, "marino": 17185, "##utz": 20267, "lobby": 9568, "reminiscent": 14563, "##enary": 24553, "synthesizers": 22211, "\u00b0f": 8157, "gong": 17242, "##gical": 26715, "lear": 26511, "reaches": 6561, "directors": 5501, "packet": 14771, "##cus": 7874, "ab": 11113, "complications": 12763, "##ali": 11475, "willow": 11940, "hobbs": 23748, "federico": 20493, "beheaded": 28923, "negative": 4997, "##oto": 11439, "attorney": 4905, "dunne": 26553, "providence": 11293, "gujarati": 26428, "mask": 7308, "##ische": 13719, "[unused606]": 611, "funky": 24151, "##cea": 21456, "##thesis": 25078, "horsepower": 15149, "alias": 14593, "osaka": 13000, "##ops": 11923, "giggle": 17565, "insisted": 7278, "season": 2161, "excluded": 12421, "brittany": 12686, "calder": 19347, "1915": 4936, "[unused835]": 840, "cn": 27166, "rotor": 18929, "communion": 15661, "addressed": 8280, "alta": 23647, "taunting": 29442, "##\u6b4c": 30412, "##her": 5886, "\u0647": 1297, "##nds": 18376, "\u0906": 1312, "trevor": 8672, "replies": 14054, "trembling": 10226, "respond": 6869, "irregular": 12052, "sava": 28350, "burrows": 22009, "instances": 12107, "##ani": 7088, "beijing": 7211, "odin": 26195, "insides": 19008, "nature": 3267, "cadillac": 20425, "giants": 7230, "scenarios": 16820, "##ho": 6806, "causing": 4786, "infancy": 22813, "##redo": 23417, "buckle": 22853, "2010": 2230, "aromatic": 25496, "[unused336]": 341, "stance": 11032, "warfare": 8309, "economy": 4610, "standing": 3061, "rust": 18399, "##lithic": 28508, "[unused310]": 315, "graphic": 8425, "remedy": 19519, "psychiatry": 18420, "secret": 3595, "sympathetic": 13026, "##llum": 20845, "suburbs": 9435, "fascinated": 15677, "##ri": 3089, "naturalist": 19176, "##it": 4183, "kade": 26159, "##\u5cf6": 30359, "relatively": 4659, "diaspora": 18239, "gallantry": 22111, "cuts": 7659, "dipped": 13537, "thicker": 19638, "##anza": 16076, "##virus": 23350, "bandit": 25334, "asshole": 22052, "##tries": 21011, "##linson": 25051, "clarissa": 25260, "arenas": 26434, "aching": 14750, "##ock": 7432, "number": 2193, "messaging": 24732, "##ayo": 28852, "[unused346]": 351, "hatch": 11300, "percent": 3867, "##brate": 22008, "vaccines": 28896, "incompatible": 25876, "sail": 9498, "arthritis": 27641, "startling": 19828, "worshipped": 22876, "phil": 6316, "wrist": 7223, "physics": 5584, "##nl": 20554, "touchdowns": 10183, "manipulating": 26242, "bauer": 17838, "##nz": 14191, "disposition": 22137, "pace": 6393, "according": 2429, "shafts": 20542, "##nnis": 27803, "##bane": 27543, "tribune": 10969, "flint": 13493, "bose": 21299, "##lar": 8017, "stone": 2962, "##ady": 18632, "films": 3152, "swelling": 18348, "toe": 11756, "cedar": 11354, "\u00a33": 28182, "todd": 6927, "##rate": 11657, "##ers": 2545, "ale": 15669, "##ake": 13808, "meridian": 17984, "weapon": 5195, "unnamed": 13294, "temeraire": 23611, "##tees": 28313, "ammonia": 25874, "[unused296]": 301, "quite": 3243, "turbulent": 22609, "##ux": 5602, "munich": 7469, "##iculate": 24153, "keyboards": 6269, "stained": 9702, "certain": 3056, "[unused369]": 374, "parentheses": 27393, "sadness": 12039, "dare": 8108, "2016": 2355, "penelope": 18641, "asturias": 26798, "limo": 23338, "rod": 8473, "medication": 14667, "dagger": 10794, "kg": 4705, "patna": 29565, "bowls": 15220, "\u2020": 1526, "adolph": 28564, "\u5fa1": 1847, "tommy": 6838, "sharks": 12004, "##38": 22025, "eritrea": 26040, "cultivated": 13237, "knesset": 27899, "chevrolet": 14724, "luxurious": 20783, "mw": 12464, "earthquakes": 17932, "##nick": 13542, "##\u09b0": 29908, "arden": 26225, "##\u1111": 30004, "##izan": 27334, "fairbanks": 24502, "spoken": 5287, "[unused820]": 825, "group": 2177, "biomedical": 20906, "##\u4e3b": 30273, "##\u067e": 29839, "sobbed": 25960, "conversely": 18868, "\u11bc": 1489, "##piration": 16781, "fantasies": 21233, "snowy": 20981, "##\u0bbe": 29931, "##logie": 27095, "##itung": 28813, "wyoming": 10622, "goats": 17977, "maritime": 7803, "goofy": 27243, "congregation": 7769, "altitudes": 21973, "##ave": 10696, "##\u0f44": 29963, "traits": 12955, "farewell": 13407, "bengal": 8191, "enlarged": 11792, "women": 2308, "prayed": 14283, "evolutionary": 12761, "##sher": 19603, "\u2084": 1551, "plains": 8575, "ticking": 28561, "rows": 10281, "rubbed": 7503, "##name": 18442, "\u0f0b": 1424, "eduardo": 14846, "##dition": 20562, "characterized": 7356, "##chee": 25923, "joan": 7437, "sensations": 21378, "upstate": 29530, "solutions": 7300, "##mis": 15630, "describes": 5577, "themes": 6991, "astros": 22058, "yukon": 19898, "christchurch": 15880, "accreditation": 14893, "[unused7]": 8, "\u0584": 1239, "##\u6771": 30405, "##tana": 20496, "##ate": 3686, "execution": 7781, "##shire": 7430, "rampage": 29216, "betsy": 22396, "trees": 3628, "harden": 28751, "[unused641]": 646, "skating": 10080, "refugee": 13141, "michael": 2745, "mountains": 4020, "schultz": 22378, "\u3009": 1638, "1774": 17593, "ivory": 11554, "documenting": 23138, "##riders": 28116, "garment": 19002, "operate": 5452, "manner": 5450, "denny": 14465, "national": 2120, "industry": 3068, "kills": 8563, "data": 2951, "sacred": 6730, "asserting": 27644, "fill": 6039, "##flower": 14156, "tending": 25069, "blake": 6511, "1628": 28627, "caretaker": 17600, "sergey": 22703, "whereupon": 26090, "tattoos": 18395, "dispose": 27764, "209": 19348, "measure": 5468, "mascara": 27700, "\u30b9": 1707, "snapping": 15790, "ganga": 28646, "town": 2237, "depot": 8470, "dolphins": 13600, "occult": 27906, "fond": 13545, "\u20b9": 1576, "linguistic": 12158, "video": 2678, "lincoln": 5367, "##ple": 10814, "ip": 12997, "##rgh": 27172, "mcmillan": 27436, "##nine": 19105, "vision": 4432, "alien": 7344, "happiness": 8404, "namesake": 17283, "tongues": 19677, "sol": 14017, "find": 2424, "ships": 3719, "rhetoric": 17871, "labeled": 12599, "ascribed": 28025, "##ato": 10610, "[unused281]": 286, "hospitality": 15961, "kaplan": 22990, "sparse": 20288, "chieftain": 26625, "charlemagne": 27257, "qur": 23183, "hove": 25215, "cages": 27157, "alma": 11346, "##dy": 5149, "##etz": 26327, "nonetheless": 9690, "shrug": 13409, "\u00a35": 27813, "katy": 17870, "bohemian": 18063, "campo": 22339, "human": 2529, "weaker": 15863, "portraits": 9668, "landon": 20642, "##iec": 23783, "carlisle": 13575, "propelled": 15801, "resented": 27188, "##verance": 21998, "bordering": 18299, "crossroads": 16760, "gypsy": 16006, "bigger": 7046, "1086": 28196, "mcgrath": 23220, "##sser": 18116, "amtrak": 20208, "\u00b3": 1083, "anticipating": 26481, "bear": 4562, "receipt": 24306, "rebuild": 14591, "absorption": 16326, "##\u00e6": 29667, "ceramic": 14692, "##mers": 16862, "fully": 3929, "05": 5709, "senegal": 16028, "##cho": 9905, "flemish": 15427, "induction": 15946, "##phus": 25255, "charges": 5571, "##ets": 8454, "truman": 15237, "taylor": 4202, "squad": 4686, "flowers": 4870, "19th": 3708, "sussex": 9503, "musicals": 20103, "seeker": 29444, "income": 3318, "novo": 24576, "##ieving": 25587, "pools": 12679, "##stock": 14758, "##ement": 13665, "columbus": 8912, "provider": 10802, "rising": 4803, "sold": 2853, "weasel": 29268, "honestly": 9826, "##garh": 13484, "\u2ebc": 1633, "scan": 13594, "395": 24673, "vegetable": 15415, "cage": 7980, "matches": 3503, "hardly": 6684, "naomi": 12806, "\u10e2": 1453, "\u57ce": 1804, "1873": 7612, "app": 10439, "richard": 2957, "itf": 27682, "congressman": 12295, "polka": 29499, "\u044d": 1208, "fused": 19660, "hagen": 24047, "succession": 8338, "rector": 10935, "redding": 26687, "efficient": 8114, "fate": 6580, "bodyguards": 25681, "albans": 26311, "casey": 9036, "xu": 15990, "##60": 16086, "depict": 17120, "or": 2030, "flickered": 15999, "ridden": 15230, "route": 2799, "furnace": 17533, "gives": 3957, "printers": 23557, "[unused497]": 502, "##stra": 20528, "##\u1105": 29994, "46th": 27990, "##using": 18161, "subordinate": 15144, "player": 2447, "americana": 25988, "##sily": 26863, "backside": 25065, "digger": 28661, "tornado": 11352, "cleavage": 28691, "college": 2267, "inevitably": 21268, "[unused308]": 313, "tons": 6197, "coup": 8648, "##ditional": 27064, "replacing": 6419, "cinemas": 19039, "rolls": 9372, "epa": 19044, "chaotic": 19633, "[unused290]": 295, "med": 19960, "vance": 16672, "distrust": 29245, "corporation": 3840, "[unused89]": 90, "##\u0649": 29837, "koch": 15259, "thoughtfully": 19897, "churchyard": 19812, "##berger": 14859, "##itate": 17570, "[unused332]": 337, "atrium": 26204, "parcel": 20463, "##bold": 27495, "orient": 16865, "chunk": 20000, "studied": 3273, "jokes": 13198, "telangana": 23764, "gardens": 5822, "reminding": 15906, "pronouns": 26028, "wetland": 22217, "##zione": 20574, "##ander": 12243, "smoothed": 17966, "cared": 8725, "##ancy": 11656, "##ibly": 17296, "smell": 5437, "zurich": 10204, "johannesburg": 15976, "cub": 21987, "diamond": 6323, "m1": 23290, "supper": 15264, "##dson": 25112, "##\u0646": 15915, "publicized": 24928, "writers": 4898, "hayes": 10192, "##\u0454": 29759, "grove": 7676, "nokia": 22098, "sailors": 11279, "bride": 8959, "suspense": 23873, "orders": 4449, "##icient": 20132, "woody": 13703, "##dorf": 11592, "##ress": 8303, "##meric": 25531, "charitable": 11128, "stairway": 21952, "haunt": 24542, "##ores": 16610, "selects": 27034, "\u306b": 1668, "##tor": 4263, "ox": 23060, "leisure": 12257, "hackett": 28630, "adoption": 9886, "greyhound": 21220, "friend": 2767, "shout": 11245, "croix": 18733, "##rial": 14482, "\u1169": 1475, "##rke": 25074, "turbine": 14027, "bothering": 17067, "1765": 20797, "disorders": 10840, "worked": 2499, "driver": 4062, "##\u6bd4": 30416, "337": 28489, "professionally": 12145, "puddle": 25081, "##bos": 15853, "f1": 20069, "strength": 3997, "renewed": 9100, "happy": 3407, "siren": 19558, "slovak": 12747, "##athic": 20972, "jenna": 13504, "domain": 5884, "lionel": 14377, "[unused312]": 317, "taiwanese": 16539, "parish": 3583, "partnering": 27001, "vibrant": 17026, "pre": 3653, "##\u0dba": 29940, "76": 6146, "stadium": 3346, "evacuated": 13377, "rana": 22175, "mcbride": 18958, "contents": 8417, "greco": 18180, "doubtful": 21888, "senators": 10153, "tilt": 17010, "privileges": 14310, "spontaneous": 17630, "##\u4f0a": 30288, "##fare": 17883, "\u524d": 1776, "\u09be": 1378, "bn": 24869, "brett": 12049, "##inating": 19185, "##\u043d": 18947, "small": 2235, "##gio": 11411, "[unused850]": 855, "sri": 5185, "rest": 2717, "[unused761]": 766, "bullock": 25200, "##20": 11387, "express": 4671, "youthful": 22446, "asked": 2356, "kayla": 26491, "bearing": 7682, "##tra": 6494, "heidi": 21372, "serialized": 27289, "##gues": 22967, "khyber": 28416, "contacted": 11925, "##able": 3085, "##\u0e19": 29949, "rained": 28270, "##gling": 18483, "classified": 6219, "locking": 14889, "suppression": 16341, "hiatus": 14221, "tastes": 16958, "rahman": 14364, "rectangular": 10806, "vin": 19354, "atletico": 16132, "grabbing": 9775, "##fide": 20740, "##hein": 26496, "binding": 8031, "##like": 10359, "woven": 17374, "counters": 24094, "photographer": 8088, "legislature": 6372, "##cl": 20464, "##\u0995": 29889, "wrists": 12150, "slippery": 22274, "theology": 8006, "funding": 4804, "arkansas": 6751, "wildlife": 6870, "transaction": 12598, "425": 23285, "recipient": 7799, "##bon": 11735, "##break": 23890, "terminating": 23552, "jelly": 20919, "huts": 23326, "ore": 10848, "24": 2484, "gan": 25957, "situation": 3663, "##ites": 7616, "\u533a": 1782, "twain": 24421, "angeles": 3349, "505": 28952, "fuzzy": 18001, "##zhou": 9791, "smartphone": 26381, "\u0442": 1197, "calf": 19134, "sardinia": 21594, "unlikely": 9832, "slavery": 8864, "banjo": 16698, "defender": 8291, "##oslav": 23085, "neutral": 8699, "##uit": 14663, "##mbling": 29256, "[unused883]": 888, "##ples": 21112, "mechanic": 15893, "[unused386]": 391, "rooted": 15685, "left": 2187, "scrape": 26988, "##ht": 11039, "##rting": 24097, "##folia": 21710, "report": 3189, "howell": 18473, "fleming": 13779, "diagonal": 19754, "##ares": 17933, "\u060c": 1268, "patriot": 16419, "smackdown": 22120, "lucie": 28831, "brand": 4435, "wrapped": 5058, "specified": 9675, "notwithstanding": 26206, "jade": 12323, "buyers": 17394, "als": 25520, "rewarded": 14610, "##7th": 27506, "kilometer": 20595, "seventies": 26232, "condo": 25805, "nawab": 26543, "pigeon": 16516, "confines": 25722, "##eza": 28640, "elevation": 6678, "appearance": 3311, "sugar": 5699, "breed": 8843, "created": 2580, "belong": 7141, "play": 2377, "\u0f53": 1429, "porch": 7424, "residences": 14094, "together": 2362, "##oped": 24174, "verona": 20197, "beginning": 2927, "fighters": 7299, "foe": 22277, "uruguay": 11724, "roads": 4925, "carla": 17081, "investors": 9387, "cunning": 23626, "debated": 15268, "decreasing": 16922, "andres": 15614, "cv": 26226, "pereira": 23857, "1858": 8517, "whoa": 23281, "flows": 6223, "##iary": 17302, "anyone": 3087, "line": 2240, "##\u05dc": 29799, "revival": 6308, "\u057e": 1235, "##rg": 10623, "bomb": 5968, "chargers": 18649, "unidentified": 20293, "proportions": 19173, "[unused610]": 615, "coal": 5317, "resonance": 17011, "engineered": 13685, "stint": 12116, "\u10da": 1447, "##iful": 18424, "##pr": 18098, "yd": 21076, "##\u2191": 30112, "dex": 20647, "sensors": 13907, "attack": 2886, "##nes": 5267, "spinal": 16492, "402": 28048, "sprayed": 25401, "recognize": 6807, "depths": 11143, "##ddling": 21814, "visibility": 16476, "[unused620]": 625, "rosenthal": 29062, "immersed": 26275, "astonishment": 23819, "large": 2312, "outlook": 17680, "responds": 16412, "shane": 8683, "portico": 23104, "mcpherson": 24332, "evenings": 16241, "[unused231]": 236, "malacca": 28481, "sleeping": 5777, "\u90fd": 1961, "##rdes": 26371, "hackney": 28425, "designations": 26672, "northwest": 4514, "yugoslavia": 8936, "projects": 3934, "striker": 11854, "##ctus": 22675, "builders": 16472, "glacier": 10046, "interpreter": 19555, "[unused603]": 608, "##dict": 29201, "##nis": 8977, "pets": 18551, "##han": 4819, "fischer": 13042, "guards": 4932, "complimented": 27175, "discussion": 6594, "negotiating": 18875, "paramount": 11734, "opportunities": 6695, "approved": 4844, "thorough": 16030, "distribute": 16062, "wolfgang": 13865, "servant": 7947, "imperial": 4461, "objection": 22224, "divide": 11443, "violence": 4808, "indicated": 5393, "recently": 3728, "[unused128]": 133, "wells": 7051, "##fat": 27753, "clean": 4550, "vicar": 12340, "touching": 7244, "##ffin": 15379, "prices": 7597, "nathan": 7150, "ecole": 12431, "emergence": 14053, "lacey": 16355, "fontana": 27182, "##\u66f2": 30396, "struck": 4930, "6": 1020, "##oven": 25592, "cabin": 6644, "\u7cf9": 1934, "##yas": 16303, "surgeon": 9431, "mirza": 18366, "harley": 13653, "villa": 6992, "##vin": 6371, "photo": 6302, "originally": 2761, "reserve": 3914, "agreeing": 16191, "encryption": 21999, "vessels": 6470, "##\u10e3": 29990, "##rigue": 27611, "november": 2281, "dubai": 11558, "nj": 19193, "25": 2423, "toro": 23790, "showcases": 27397, "##ype": 18863, "##patient": 24343, "stephan": 15963, "print": 6140, "strode": 11885, "diversion": 20150, "##\u064a": 14498, "disputes": 11936, "infinitely": 25773, "##hma": 22444, "producing": 5155, "concepts": 8474, "##sie": 11741, "blossom": 20593, "kam": 27829, "##lton": 13947, "peeking": 28222, "##lon": 7811, "[unused286]": 291, "bea": 26892, "##wny": 22251, "##atable": 27892, "fcc": 14420, "sorted": 19616, "disturbed": 12491, "darcy": 17685, "ao": 20118, "able": 2583, "##bags": 26813, "cleopatra": 22003, "fellows": 13572, "humans": 4286, "##ksha": 28132, "guantanamo": 23094, "wai": 23701, "pup": 26781, "valuable": 7070, "apologetic": 29352, "jd": 26219, "touches": 12817, "workforce": 14877, "tossed": 7463, "glucose": 18423, "##lby": 14510, "frowned": 7335, "stem": 7872, "philippines": 5137, "herrera": 23527, "##pack": 23947, "bradley": 8981, "##olo": 12898, "##\u0bc7": 29934, "global": 3795, "strategy": 5656, "sports": 2998, "##\u30bb": 30234, "##print": 16550, "policemen": 19809, "whoever": 9444, "sang": 6369, "beings": 9552, "reservations": 17829, "##ctric": 22601, "irrigation": 12442, "fitz": 27706, "musik": 28076, "fia": 19807, "flat": 4257, "ended": 3092, "drug": 4319, "##nzo": 25650, "helpless": 13346, "##sas": 20939, "\u116f": 1479, "superseded": 19886, "[unused752]": 757, "##ita": 6590, "many": 2116, "gigs": 20929, "greatest": 4602, "aj": 19128, "##\u00f8": 16415, "cove": 11821, "clayton": 11811, "maharashtra": 12434, "bce": 10705, "versus": 6431, "biennial": 20313, "cement": 11297, "exactly": 3599, "[unused6]": 7, "recall": 9131, "killers": 15978, "appear": 3711, "##tated": 16238, "clerks": 26706, "available": 2800, "tackled": 26176, "bot": 28516, "##s\u0142aw": 23305, "##sed": 6924, "150": 5018, "##oke": 11045, "pirate": 11304, "\u03be": 1168, "leaks": 29324, "ctv": 28720, "implant": 27159, "parliament": 3323, "observing": 14158, "medium": 5396, "##\u4e16": 30271, "rental": 12635, "does": 2515, "nautical": 11339, "founders": 8759, "orchestrated": 23339, "priority": 9470, "##nan": 7229, "pictorial": 28304, "products": 3688, "mig": 19117, "westfield": 26584, "hen": 21863, "[unused611]": 616, "harder": 6211, "##oris": 21239, "shia": 20474, "bangalore": 14022, "signature": 8085, "satisfy": 13225, "clasped": 16763, "albuquerque": 19334, "##uppe": 29547, "cassidy": 13737, "resembles": 12950, "discarded": 15105, "1844": 9730, "##rrado": 27933, "\u2ea9": 1632, "julio": 15090, "ready": 3201, "bowman": 19298, "niall": 21889, "erie": 13374, "##kulam": 28871, "##hen": 10222, "##fles": 28331, "jerseys": 28772, "lennox": 21060, "[unused151]": 156, "vassal": 24351, "001": 25604, "recognizing": 14622, "\u2297": 1613, "seasoned": 28223, "haggard": 27912, "##quent": 15417, "volume": 3872, "[unused67]": 68, "##lib": 29521, "mitochondrial": 23079, "##pa": 4502, "minsk": 20790, "[unused515]": 520, "luz": 26214, "his": 2010, "maroon": 22222, "##\u2665": 30152, "##\u79cb": 30455, "intersection": 6840, "[unused401]": 406, "honeymoon": 19227, "##\u0430\u043d": 28995, "undertaking": 18457, "involuntary": 26097, "eugen": 29273, "1860": 7313, "incentive": 20438, "##llins": 26655, "illustrations": 11249, "religious": 3412, "berkeley": 8256, "levels": 3798, "illinois": 4307, "duval": 23929, "reclamation": 27389, "dryly": 20825, "##ashi": 12914, "[unused842]": 847, "maybe": 2672, "##lary": 28221, "marrow": 24960, "##pl": 24759, "green": 2665, "abandon": 10824, "predatory": 21659, "reused": 26513, "##e": 2063, "yeast": 21957, "overgrown": 26433, "governors": 11141, "arbitration": 18010, "##woman": 10169, "##\u110b": 29999, "lord": 2935, "albert": 4789, "conducts": 17976, "##nb": 27698, "sentiments": 23541, "genera": 11416, "designated": 4351, "sole": 7082, "flowering": 10902, "##iring": 24771, "##fect": 25969, "sexuality": 13798, "enamel": 29484, "##naud": 26160, "skylar": 27970, "knowledge": 3716, "##\u5916": 30335, "##ene": 8625, "##lers": 12910, "herbert": 7253, "signaled": 22319, "reviewers": 15814, "[unused326]": 331, "ventral": 23420, "##izing": 6026, "flopped": 24723, "veronica": 13133, "vinci": 23765, "matched": 10349, "weak": 5410, "pleasing": 24820, "comprising": 9605, "downstream": 13248, "brunette": 27261, "chuckle": 15375, "stranded": 15577, "lorenzo": 12484, "revolution": 4329, "abuses": 21078, "lambda": 23375, "sunlight": 9325, "fabian": 21174, "embedded": 11157, "draught": 25349, "[unused343]": 348, "186": 19609, "pm": 7610, "sighed": 5489, "tinted": 25577, "##chman": 19944, "##ang": 5654, "spray": 12509, "closet": 9346, "valkyrie": 26696, "increased": 3445, "solidarity": 14657, "##cture": 14890, "popcorn": 24593, "1986": 3069, "zoo": 9201, "doesn": 2987, "regiments": 10435, "liver": 11290, "theatre": 3004, "spelling": 11379, "pale": 5122, "shadowy": 22801, "jimmie": 24671, "[unused425]": 430, "##bruck": 28985, "strictly": 9975, "continuous": 7142, "\u8a9e": 1950, "[unused129]": 134, "##cini": 27085, "empire": 3400, "cheshire": 13789, "mona": 13813, "##\u4f1a": 30289, "1778": 16331, "2007": 2289, "surviving": 6405, "##jhl": 29001, "corvette": 22687, "millimetres": 13388, "malley": 25271, "luca": 15604, "moaned": 12557, "speculation": 12143, "##mm": 7382, "excursion": 26144, "repay": 24565, "hectares": 9076, "einstein": 15313, "loves": 7459, "hudson": 6842, "##]": 29636, "fished": 26281, "valet": 27238, "messing": 22308, "dane": 14569, "##\u062d": 29820, "##wire": 20357, "dakota": 7734, "sets": 4520, "ah": 6289, "##\u1d63": 30043, "winked": 14217, "[unused159]": 164, "campeonato": 17675, "pointedly": 28713, "wide": 2898, "44": 4008, "##lles": 20434, "##ison": 10929, "##hered": 27190, "\u0646": 1296, "bounce": 17523, "patrols": 14703, "snort": 26759, "##\u2206": 30122, "cochin": 28982, "papers": 4981, "##bush": 22427, "last": 2197, "tae": 22297, "adventurous": 29118, "witnesses": 9390, "lightly": 8217, "crawling": 15927, "brightened": 28996, "\u2205": 1593, "unions": 9209, "mock": 12934, "##gos": 12333, "##llan": 19036, "squinted": 17425, "[unused363]": 368, "tolkien": 23602, "balloon": 13212, "##57": 28311, "##rce": 19170, "lowlands": 26411, "##oro": 14604, "##\u4e0b": 30269, "##istan": 23137, "1792": 13414, "142": 16087, "segunda": 19071, "terrifying": 17082, "interred": 13917, "thirteenth": 14725, "food": 2833, "##lett": 20897, "wheel": 5217, "dharma": 20669, "erroneously": 29411, "239": 23688, "##athlon": 17563, "pads": 19586, "##ui": 10179, "synagogue": 13067, "designate": 24414, "gaga": 23332, "expelled": 10016, "\u09b2": 1373, "liaison": 14975, "haste": 24748, "##mond": 11442, "[unused565]": 570, "recover": 8980, "\u5c07": 1828, "desperately": 9652, "##\u0996": 29890, "toured": 7255, "vilnius": 20513, "bombardment": 10400, "regulations": 7040, "adulthood": 20480, "oil": 3514, "shares": 6661, "cincinnati": 7797, "morris": 6384, "confrontation": 13111, "accelerate": 23306, "shakespeare": 8101, "shoulders": 4065, "spies": 16794, "banned": 7917, "consonants": 19694, "violent": 6355, "##mah": 25687, "woodland": 11051, "been": 2042, "paused": 5864, "diverted": 18356, "securely": 28999, "arcs": 29137, "symphonies": 29355, "mala": 28935, "\u0255": 1113, "relocate": 20102, "biased": 25352, "accomplishments": 17571, "\u0644": 1294, "##lding": 24573, "purple": 6379, "nk": 25930, "mixes": 21109, "indirect": 14958, "penitentiary": 29569, "##bina": 21114, "antigua": 26023, "customers": 6304, "enters": 8039, "shaping": 20300, "##\u5408": 30318, "[unused921]": 926, "mediterranean": 7095, "##ibe": 20755, "converted": 4991, "##lic": 10415, "[unused749]": 754, "watford": 21740, "##\u0131": 11722, "greer": 25939, "inhuman": 29582, "swear": 8415, "rendering": 14259, "hotel": 3309, "\u8a01": 1949, "victory": 3377, "officially": 3985, "exeter": 12869, "##gna": 16989, "consequently": 8821, "described": 2649, "jc": 29175, "##\u11b8": 30024, "##leader": 19000, "\u308d": 1689, "##ppel": 27877, "virus": 7865, "peasant": 14539, "armour": 12371, "penny": 10647, "##chuk": 26516, "sw": 25430, "\ufb01": 1984, "##tley": 18492, "sonora": 26647, "0": 1014, "cylinders": 18729, "bolton": 12118, "##unced": 22392, "willem": 18811, "[unused549]": 554, "squealed": 26175, "baltimore": 6222, "##dell": 12662, "sliding": 8058, "collar": 9127, "##nberg": 11144, "duty": 4611, "##race": 22903, "specialization": 28031, "##nington": 23155, "curry": 15478, "narrower": 22546, "flee": 10574, "pregnant": 6875, "##k": 2243, "plaintiffs": 23953, "births": 18250, "fine": 2986, "ia": 24264, "\u6d77": 1902, "##\u03c6": 29736, "[unused582]": 587, "capable": 5214, "##hner": 28989, "intact": 10109, "prohibiting": 26325, "est": 9765, "##kr": 21638, "##bery": 22509, "prevailed": 19914, "connected": 4198, "##sh": 4095, "nod": 7293, "rotterdam": 15632, "kicking": 10209, "gottingen": 23607, "bhp": 22245, "\u05e5": 1262, "sima": 26769, "\u05d8": 1249, "looting": 29367, "reminded": 6966, "tko": 26537, "dogs": 6077, "44th": 26409, "[unused538]": 543, "##ll": 3363, "conditioning": 14372, "hutchinson": 17165, "\u6b63": 1888, "allegro": 25319, "judo": 19083, "seeming": 16064, "bouncing": 16361, "cosmos": 21182, "\u0629": 1272, "##urer": 27595, "swallow": 10577, "soy": 25176, "##haya": 26115, "degree": 3014, "vic": 10967, "encourages": 16171, "##kova": 18810, "annoyed": 11654, "remembrance": 19451, "sizes": 10826, "appointed": 2805, "nc": 13316, "##and": 5685, "content": 4180, "[unused609]": 614, "instead": 2612, "stabbed": 13263, "##^": 29637, "kidnapped": 11364, "shiva": 12535, "##nay": 16741, "numerical": 15973, "hearts": 8072, "420": 17442, "walking": 3788, "circle": 4418, "impetus": 27961, "turks": 12896, "acid": 5648, "dustin": 24337, "continuity": 13717, "[unused956]": 961, "marty": 12578, "\u79be": 1927, "republics": 24822, "\u09a8": 1366, "nbl": 28013, "slovakia": 10991, "heavily": 4600, "knotted": 27039, "mika": 27857, "counted": 8897, "format": 4289, "##ray": 9447, "\u043a": 1189, "kimberly": 23729, "##\u30a3": 30220, "nominated": 4222, "1675": 27194, "##ro": 3217, "pleas": 22512, "desired": 9059, "nike": 18368, "provisions": 8910, "districts": 4733, "aggravated": 25817, "succeeded": 4594, "oracle": 14721, "##\u304b": 30177, "sob": 17540, "##key": 14839, "detroit": 5626, "distinctly": 19517, "mathews": 23287, "##lus": 7393, "250": 5539, "simone": 14072, "volumes": 6702, "jiangsu": 28091, "authorization": 20104, "breasts": 12682, "adopting": 16151, "similar": 2714, "stems": 12402, "subset": 16745, "attempt": 3535, "vertices": 18984, "##aks": 29243, "rom": 17083, "agatha": 23863, "##\u2015": 30053, "nagar": 16395, "[unused316]": 321, "##bation": 23757, "mateo": 19327, "fulfill": 13883, "kun": 28919, "spirit": 4382, "mercantile": 25420, "rebounds": 11049, "liberals": 13350, "della": 8611, "##dar": 7662, "convinced": 6427, "sack": 12803, "definitive": 15764, "proper": 5372, "##ists": 5130, "rooms": 4734, "joker": 19318, "##maker": 8571, "##ye": 6672, "graceful": 19415, "influences": 8092, "interfaces": 19706, "ste": 26261, "##vo": 6767, "##ral": 7941, "##late": 13806, "logical": 11177, "roof": 4412, "pittsburgh": 6278, "condoms": 29094, "##\u592b": 30339, "opposed": 4941, "grimm": 24287, "wondering": 6603, "predict": 16014, "registering": 25719, "##\u4f50": 30290, "princeton": 9173, "amplifiers": 28633, "scarred": 21985, "\u30b3": 1704, "comic": 5021, "listing": 10328, "lions": 7212, "cavern": 16679, "##vita": 28403, "conveyed": 21527, "yokohama": 20507, "aroused": 18391, "malawi": 18137, "ceasefire": 26277, "sucking": 13475, "communism": 15523, "eliminate": 11027, "\u6c0f": 1891, "tanzania": 11959, "##ncies": 14767, "[unused636]": 641, "##hering": 22658, "##\u0645": 22192, "sought": 4912, "ict": 25891, "475": 28245, "pitted": 25895, "minimal": 10124, "definite": 15298, "1956": 3838, "##time": 7292, "ismail": 19214, "defend": 6985, "##\u3046": 30174, "tick": 16356, "charles": 2798, "##bbling": 15343, "gunmen": 28932, "##\u2013": 30051, "##\u0bc1": 29933, "curt": 20099, "newcastle": 8142, "##ayan": 25868, "goat": 13555, "abandoned": 4704, "affected": 5360, "deserves": 17210, "rotational": 25254, "sir": 2909, "\u5bbf": 1826, "mozambique": 16274, "seville": 18983, "previous": 3025, "##28": 22407, "[unused667]": 672, "stimuli": 22239, "fledged": 26712, "midtown": 27219, "theft": 11933, "##\u09a4": 29898, "allotted": 23932, "ambitions": 19509, "##\u09b6": 29910, "warriors": 6424, "discontinued": 8944, "oboe": 22523, "summoned": 11908, "##ane": 7231, "inside": 2503, "fei": 24664, "##ming": 6562, "portion": 4664, "materials": 4475, "kansas": 5111, "communicated": 24162, "stalks": 29594, "##lica": 19341, "jewels": 15565, "inc": 4297, "##rad": 12173, "widespread": 6923, "##master": 8706, "mba": 15038, "detectives": 18145, "##\u1d52": 30039, "610": 19827, "##otte": 28495, "##king": 6834, "keenan": 26334, "##rest": 28533, "##\u21d2": 30119, "[unused660]": 665, "filthy": 18294, "benedictine": 21139, "scratches": 25980, "clue": 9789, "pharmaceuticals": 24797, "typed": 21189, "regents": 22832, "fictional": 7214, "olympiad": 25225, "leafs": 21349, "influence": 3747, "release": 2713, "announces": 17472, "##rou": 22494, "dazed": 19720, "erased": 23516, "thriving": 20319, "##inn": 23111, "##ost": 14122, "##polis": 17699, "conjunction": 9595, "break": 3338, "myra": 23020, "potential": 4022, "contact": 3967, "convection": 23849, "fates": 26417, "trickle": 26027, "raked": 22438, "##onne": 18256, "worry": 4737, "christy": 21550, "threats": 8767, "##\uff1a": 30519, "cw": 19296, "\u7248": 1907, "[unused434]": 439, "##dina": 18979, "maha": 24404, "maze": 15079, "mukherjee": 27040, "##ations": 10708, "ecology": 13517, "hua": 23064, "backup": 10200, "understanding": 4824, "##\u0561": 29766, "sabah": 22515, "containing": 4820, "scar": 11228, "volta": 26089, "retreating": 17512, "\u099f": 1359, "wentworth": 20572, "horton": 18469, "dispatch": 18365, "clifford": 13894, "sylvie": 26009, "##amy": 24079, "woods": 5249, "hamish": 28859, "relating": 8800, "##cial": 13247, "railing": 15747, "tsar": 17608, "legitimate": 11476, "##wer": 13777, "decide": 5630, "britney": 29168, "[unused685]": 690, "owes": 24381, "##taro": 28160, "##nium": 14907, "##\u79c0": 30454, "notices": 14444, "chariot": 23507, "israeli": 5611, "monuments": 10490, "rivals": 9169, "muted": 22124, "sheila": 15062, "crab": 18081, "breakaway": 26321, "item": 8875, "knighted": 19572, "triassic": 29529, "medial": 23828, "\u30c6": 1713, "[unused224]": 229, "cardiovascular": 22935, "snapped": 5941, "chiefly": 15897, "##orra": 24285, "##abad": 10542, "fungus": 16622, "vent": 18834, "lexington": 14521, "##rano": 20770, "snout": 17291, "cleared": 5985, "viking": 12886, "truth": 3606, "pepsi": 27237, "##\u1109": 29997, "substitution": 20885, "[unused622]": 627, "demetrius": 28367, "compared": 4102, "##jee": 16963, "hideout": 29588, "[unused133]": 138, "elastic": 21274, "##por": 17822, "journal": 3485, "countless": 14518, "jerk": 12181, "surged": 18852, "impression": 8605, "sneered": 28098, "creek": 3636, "##nished": 28357, "##nham": 20465, "cousins": 12334, "exists": 6526, "doyle": 11294, "[unused816]": 821, "oct": 13323, "##rl": 12190, "##ghton": 21763, "dice": 18740, "##ic": 2594, "belgium": 5706, "ordnance": 14445, "caucasus": 16512, "suggest": 6592, "\u0563": 1221, "maldives": 25059, "corruption": 7897, "##ough": 10593, "judaism": 13725, "zebra": 29145, "\u0142odz": 17814, "marquez": 27320, "##\u0dcf": 29944, "untitled": 24819, "flair": 22012, "samples": 8168, "growth": 3930, "transmit": 19818, "jurisdictions": 17370, "##tsky": 26824, "stain": 21101, "controversy": 6704, "drain": 12475, "##\u208a": 30086, "acclaimed": 10251, "additionally": 5678, "redemption": 18434, "declared": 4161, "paints": 23262, "drivers": 6853, "caribbean": 7139, "bucks": 14189, "counties": 5721, "origin": 4761, "tides": 22487, "singles": 3895, "recoil": 27429, "##uo": 19098, "iv": 4921, "politely": 16954, "##ve": 3726, "valerie": 14264, "redundant": 21707, "serbian": 6514, "[unused430]": 435, "##uth": 14317, "pulsed": 24107, "identities": 15702, "blinking": 15997, "terraces": 25633, "arson": 24912, "shanghai": 8344, "[unused303]": 308, "passports": 19494, "remorse": 23124, "##udence": 29424, "##unds": 26698, "orange": 4589, "winger": 16072, "[unused288]": 293, "lies": 3658, "##\u66f8": 30397, "commented": 7034, "semester": 13609, "townspeople": 27938, "duration": 9367, "quad": 17718, "ie": 29464, "italianate": 25302, "site": 2609, "[unused273]": 278, "##\u2081": 11871, "expenditure": 20700, "##\u1107": 29996, "vinnie": 24214, "personnel": 5073, "sentimental": 23069, "edited": 5493, "hostilities": 17601, "3d": 7605, "professions": 22797, "##clave": 23650, "marching": 10998, "critically": 11321, "videos": 6876, "stairwell": 22109, "fig": 20965, "carthage": 21959, "hailed": 16586, "mvp": 12041, "ordeal": 23304, "freud": 19338, "fallen": 5357, "chaplin": 23331, "candace": 22905, "especially": 2926, "mobile": 4684, "##herton": 27949, "09": 5641, "sails": 17553, "walters": 19097, "1877": 7557, "maintained": 5224, "caller": 20587, "##rzburg": 29136, "giorgio": 17697, "\u0291": 1137, "flared": 14937, "##\u6ca2": 30424, "assembled": 9240, "rosenberg": 21069, "##gating": 16961, "alla": 25699, "\u3086": 1683, "ceased": 7024, "kicker": 22652, "whose": 3005, "lehigh": 23241, "##ately": 28239, "shrines": 22562, "hostile": 10420, "legendary": 8987, "cow": 11190, "[unused180]": 185, "installed": 5361, "stomped": 21918, "yahoo": 20643, "monty": 18446, "rc": 22110, "dom": 14383, "potter": 10693, "##\u02be": 29713, "##17": 16576, "uniquely": 20640, "severely": 8949, "##und": 8630, "strengthened": 13949, "parkway": 12602, "##ono": 17175, "joined": 2587, "any": 2151, "rr": 25269, "fines": 21892, "uv": 23068, "kwan": 27741, "rotating": 13618, "thing": 2518, "##wley": 20609, "blog": 9927, "aerial": 9682, "[unused26]": 27, "[unused534]": 539, "hires": 28208, "damned": 9636, "yue": 27163, "sponge": 25742, "##ra": 2527, "pulled": 2766, "richer": 26108, "environmental": 4483, "cars": 3765, "toni": 16525, "carved": 7844, "##itis": 13706, "\u0916": 1316, "\u0431": 1181, "##app": 29098, "destinations": 14345, "bb": 22861, "aura": 15240, "rational": 11581, "jamaican": 17851, "afterlife": 25115, "twitch": 19435, "massif": 24875, "consequences": 8465, "stills": 26105, "botanic": 27761, "authorship": 26324, "per": 2566, "ramos": 18882, "sauce": 12901, "friendly": 5379, "tennessee": 5298, "wrestler": 10706, "emphasize": 17902, "forecast": 19939, "error": 7561, "1934": 4579, "brother": 2567, "##mark": 10665, "panic": 6634, "natural": 3019, "failed": 3478, "##ua": 6692, "nile": 15179, "area": 2181, "##bius": 17028, "hostages": 19323, "##6th": 25994, "##try": 11129, "\u4ecb": 1759, "##off": 7245, "botany": 17018, "entirety": 15700, "##nies": 15580, "purely": 11850, "executions": 22679, "juris": 27551, "warn": 11582, "fling": 27655, "roofs": 15753, "janice": 20029, "##pta": 22799, "sky": 3712, "[unused134]": 139, "overlap": 17702, "##uk": 6968, "737": 22061, "heron": 22914, "80s": 16002, "vans": 21994, "begs": 27591, "##uaries": 22579, "constant": 5377, "##\u7684": 30442, "dolls": 14421, "neighbour": 20065, "eyebrow": 9522, "brahms": 28419, "##andra": 29159, "##urbed": 29595, "donovan": 12729, "\u306a": 1667, "divinity": 16968, "harald": 20966, "christopher": 5696, "##tub": 28251, "denominations": 17384, "performers": 9567, "alligator": 28833, "dismissal": 15322, "##grass": 19673, "\uff1a": 1993, "september": 2244, "medicinal": 20632, "##creen": 24410, "##uel": 16284, "viz": 26619, "##dd": 14141, "[unused590]": 595, "horrific": 23512, "##eros": 27360, "dolphin": 17801, "clusters": 12906, "barney": 15377, "leagues": 8121, "##esh": 9953, "teased": 13074, "lamp": 10437, "##loe": 26846, "infamous": 14429, "262": 21950, "convenience": 15106, "fences": 21549, "please": 3531, "##rrigan": 28706, "potatoes": 14629, "hornet": 26795, "##vington": 21827, "detrimental": 29172, "##st": 3367, "vaulted": 24616, "##gill": 19791, "boutique": 24611, "##dates": 27122, "obeyed": 22665, "bridgeport": 27986, "263": 25246, "##nta": 12380, "arrives": 8480, "georgie": 20280, "escape": 4019, "temperatures": 7715, "live": 2444, "lure": 17256, "avoidance": 24685, "willis": 12688, "##\u90fd": 30487, "fears": 10069, "##hab": 25459, "notion": 9366, "mediated": 19872, "polite": 13205, "peptide": 25117, "##lum": 12942, "andersen": 18308, "exodus": 16388, "bill": 3021, "entities": 11422, "##chet": 20318, "[unused659]": 664, "##yt": 22123, "fisted": 28273, "clinic": 9349, "outspoken": 22430, "##nic": 8713, "iihf": 26904, "boys": 3337, "storing": 23977, "enlightenment": 16724, "##ssi": 18719, "##ager": 17325, "##\u026c": 29687, "repeating": 15192, "stilled": 22791, "##an": 2319, "abstraction": 24504, "zion": 19999, "circumstance": 25652, "sic": 14387, "archway": 28189, "##ues": 15808, "##mora": 22122, "bosch": 25936, "kochi": 27603, "translucent": 22897, "admiralty": 14179, "structures": 5090, "safeguard": 28805, "frequency": 6075, "bacterium": 24024, "sino": 19432, "stefano": 19618, "##\u53f8": 30317, "recorder": 14520, "1720": 23535, "theo": 14833, "clothing": 5929, "flashes": 16121, "diseases": 7870, "##ivate": 21466, "jazz": 4166, "researches": 27338, "basement": 8102, "technician": 16661, "jose": 4560, "clicked": 13886, "##rod": 14127, "colonies": 8355, "\u0ba8": 1386, "increase": 3623, "lied": 9828, "coyote": 20457, "nuremberg": 19346, "[unused212]": 217, "abs": 14689, "##ust": 19966, "csa": 27804, "wiped": 8342, "zoe": 11199, "##gation": 12540, "##ntal": 15758, "mick": 10872, "foster": 6469, "##tate": 12259, "copy": 6100, "bared": 23485, "##rian": 6862, "breathing": 5505, "405": 23988, "required": 3223, "1930s": 5687, "##\u203f": 30069, "##take": 15166, "conditional": 18462, "adherents": 25712, "tags": 22073, "201": 16345, "anxious": 11480, "baronetcy": 25071, "processes": 6194, "formats": 11630, "borrowing": 23733, "houston": 5395, "##otti": 21325, "tombs": 16623, "afro": 17694, "academic": 3834, "iteration": 27758, "champagne": 12327, "numb": 15903, "sara": 7354, "briefcase": 21793, "##eux": 20860, "crusader": 25237, "creativity": 14842, "superman": 10646, "panther": 15133, "li": 5622, "heavier": 11907, "1961": 3777, "barbara": 6437, "vulture": 27588, "burns": 7641, "eyelashes": 25150, "lister": 27177, "##og": 8649, "writings": 7896, "[unused47]": 48, "\u590f": 1808, "##ben": 10609, "telephone": 7026, "descendant": 12608, "management": 2968, "flames": 7311, "doctrine": 8998, "##\u5fd7": 30377, "silly": 10021, "media": 2865, "casimir": 24701, "court": 2457, "worker": 7309, "##utnant": 24620, "situations": 8146, "gem": 17070, "punishments": 29115, "\u05dc": 1253, "##sse": 11393, "solve": 9611, "##\u05de": 29801, "serials": 28172, "method": 4118, "protestants": 19592, "grazing": 15400, "##ook": 14659, "hamilton": 5226, "exhibition": 4538, "romans": 10900, "keane": 27228, "lets": 11082, "broadly": 13644, "celeste": 21113, "stanza": 29509, "##ac": 6305, "##holes": 19990, "##urse": 28393, "cups": 10268, "1846": 9244, "##gold": 21270, "##film": 23665, "decades": 5109, "damascus": 16094, "cabbage": 28540, "mistakes": 12051, "pounder": 20091, "##lity": 18605, "brandt": 19407, "pearson": 12874, "##\u116f": 30015, "inscribed": 14551, "carbon": 6351, "overly": 15241, "lauren": 10294, "pu": 16405, "236": 23593, "\u00aa": 1076, "jennifer": 7673, "ld": 25510, "returning": 4192, "rebound": 27755, "solely": 9578, "clube": 24852, "territories": 6500, "1832": 10212, "gaius": 19564, "remake": 12661, "forgiven": 24280, "peacekeeping": 28364, "ns": 24978, "\u3051": 1654, "##ishing": 21837, "limits": 6537, "##quist": 18331, "cable": 5830, "glare": 10982, "trunks": 20509, "clubhouse": 22067, "##iente": 25099, "society": 2554, "gravel": 11127, "reintroduced": 28263, "##\u208e": 30088, "regan": 16964, "flirt": 27978, "thermal": 9829, "granted": 4379, "elijah": 14063, "surveying": 19654, "yo": 10930, "membership": 5779, "1880s": 12751, "iq": 26264, "judd": 20128, "1752": 24736, "schooling": 14118, "qaeda": 18659, "##rative": 18514, "turkic": 22926, "##rse": 22573, "ogden": 23203, "alliance": 4707, "corporal": 14265, "gust": 26903, "greeks": 13176, "demographics": 28321, "conqueror": 25466, "nurses": 11500, "symmetry": 14991, "##zy": 9096, "kruger": 27823, "seizing": 24681, "impatiently": 19951, "clancy": 24530, "[unused910]": 915, "herald": 9536, "##lly": 9215, "walton": 14290, "alfred": 6152, "##voking": 22776, "##kur": 18569, "practised": 20439, "um": 8529, "mecklenburg": 22007, "interface": 8278, "legislation": 6094, "tehran": 13503, "articles": 4790, "##nery": 27415, "unfinished": 14342, "[unused412]": 417, "underwater": 11564, "regal": 21279, "thames": 11076, "chips": 11772, "gabled": 26182, "hey": 4931, "enforcement": 7285, "leone": 13363, "when": 2043, "jesse": 7627, "mid": 3054, "##naire": 20589, "earthquake": 8372, "##aries": 12086, "bored": 11471, "breuning": 18177, "dj": 6520, "sighting": 29426, "amplifier": 22686, "sausage": 24165, "heard": 2657, "aluminium": 14794, "engraving": 23501, "scores": 7644, "below": 2917, "store": 3573, "alloys": 28655, "##pled": 21132, "editing": 9260, "campground": 29144, "\u1d64": 1509, "laptop": 12191, "ann": 5754, "remarked": 10783, "##ulton": 22145, "alex": 4074, "dixie": 18910, "degradation": 16627, "trident": 26515, "stiff": 10551, "sentencing": 23280, "stay": 2994, "subscription": 15002, "mikhail": 11318, "##nesian": 20281, "##ever": 22507, "symbolic": 12613, "\u91d1": 1964, "car": 2482, "arrangement": 6512, "latvia": 12429, "fitch": 26062, "bel": 19337, "##rant": 17884, "cuba": 7394, "circumstances": 6214, "lbs": 20702, "occasions": 6642, "textiles": 18762, "##lce": 23314, "[unused490]": 495, "##js": 22578, "backwards": 11043, "wants": 4122, "realise": 19148, "[unused862]": 867, "render": 17552, "namely": 8419, "##iq": 18515, "hillside": 18573, "nearby": 3518, "undergoing": 14996, "pantheon": 24152, "sven": 21313, "hut": 12570, "conversation": 4512, "expressive": 22570, "stroll": 27244, "##raction": 25533, "nerve": 9113, "grandchildren": 13628, "pilgrimage": 14741, "familiar": 5220, "implementing": 14972, "stating": 5517, "sash": 24511, "times": 2335, "estimated": 4358, "##jas": 17386, "drugs": 5850, "mathematician": 13235, "neptune": 21167, "renowned": 8228, "narrator": 11185, "ton": 10228, "##ductive": 26638, "[unused338]": 343, "contributor": 12130, "hemisphere": 14130, "cheekbones": 27181, "swing": 7370, "iso": 11163, "towels": 24213, "managed": 3266, "##wall": 9628, "\u05e6": 1263, "##ding": 4667, "295": 21679, "morning": 2851, "##than": 21604, "newspaper": 3780, "lois": 15815, "iroquois": 23015, "[unused597]": 602, "##do": 3527, "[unused127]": 132, "##\u209c": 30099, "oscar": 7436, "##hine": 14014, "sipping": 24747, "##idae": 6096, "lev": 23310, "##ttered": 14795, "##ade": 9648, "##stellar": 29028, "hardship": 26479, "##hane": 28006, "listeners": 13810, "acquaintances": 29409, "gibbs": 15659, "halls": 9873, "who": 2040, "##\u30b1": 30229, "sichuan": 20980, "desperation": 15561, "virgin": 6261, "factual": 25854, "classmates": 19846, "heroes": 7348, "entertain": 20432, "choi": 18151, "atheist": 23503, "##scent": 27654, "680": 23944, "first": 2034, "##berman": 23991, "yoga": 13272, "supervisor": 12366, "##firm": 27972, "patriotic": 14314, "gps": 14658, "##usion": 14499, "##zyn": 23749, "##bedo": 28759, "bethel": 19375, "amy": 6864, "saloon": 17078, "antony": 16262, "affectionately": 28734, "##quin": 12519, "holloway": 20977, "##kney": 26993, "sami": 17015, "caps": 9700, "temporary": 5741, "parachute": 13561, "[unused214]": 219, "charging": 13003, "181": 18596, "evaluating": 23208, "flaming": 19091, "forefront": 22870, "##\u3008": 30163, "vested": 26003, "wagons": 14525, "cam": 11503, "backing": 5150, "attractive": 8702, "tourists": 9045, "disconnected": 23657, "##4th": 26724, "heaven": 6014, "tipperary": 17333, "headquartered": 9403, "arun": 28217, "##hrer": 17875, "npr": 21411, "curves": 10543, "##tea": 27058, "kali": 19924, "manifold": 19726, "\u3068": 1666, "bogota": 21240, "worthless": 22692, "mist": 11094, "educate": 16957, "compare": 12826, "[unused306]": 311, "##izer": 17629, "affairs": 3821, "##ssel": 21218, "champs": 29008, "bangor": 21895, "exhaled": 16242, "grain": 8982, "##rky": 15952, "[unused573]": 578, "proposal": 6378, "positively": 13567, "backward": 8848, "vis": 25292, "enchanted": 22454, "nuclei": 23767, "##ker": 5484, "\u2026": 1529, "graveyard": 16685, "absolutely": 7078, "owns": 8617, "eighty": 12021, "writhing": 26185, "moroccan": 17494, "excited": 7568, "textual": 25304, "kaladin": 22588, "ignited": 22395, "propulsion": 16404, "commissioned": 4837, "foods": 9440, "avery": 12140, "stable": 6540, "alberta": 7649, "doubles": 7695, "slower": 12430, "shapes": 10466, "##inski": 19880, "tunisian": 22946, "fabrication": 25884, "shielding": 25553, "\u0b9a": 1383, "##\u2098": 30096, "\u30a3": 1694, "accordion": 19060, "cousin": 5542, "claire": 6249, "tingle": 25792, "qc": 25196, "scaling": 25169, "croats": 26222, "godfather": 23834, "beam": 7504, "archery": 21383, "[unused58]": 59, "##\u30ea": 30258, "##ape": 24065, "[unused717]": 722, "clinton": 7207, "millennia": 27620, "shed": 8328, "##bank": 9299, "yep": 15624, "pal": 14412, "school": 2082, "##lkirk": 23913, "servicing": 26804, "tack": 26997, "input": 7953, "hesitate": 16390, "browser": 16602, "##\u056b": 29772, "##lessly": 10895, "\u0932": 1334, "disagreement": 18185, "##\u30df": 30250, "system": 2291, "miguel": 8374, "eventual": 9523, "ely": 20779, "coupling": 19780, "eyeing": 19285, "pisa": 25472, "##otide": 26601, "##borne": 19288, "liberty": 7044, "##\u09a7": 29901, "\u0b95": 1382, "gleam": 24693, "tangle": 24453, "bows": 21207, "turnpike": 17116, "sunny": 11559, "picnic": 12695, "unpleasant": 16010, "flavor": 14894, "##ndo": 15482, "intel": 13420, "garage": 7381, "bakery": 18112, "[unused161]": 166, "##anum": 27975, "slogan": 14558, "\u6c34": 1893, "concerns": 5936, "entire": 2972, "guangdong": 21287, "##text": 18209, "midfield": 23071, "parental": 18643, "1703": 28366, "##ums": 18163, "pasta": 24857, "lisbon": 11929, "##graphy": 12565, "famed": 15607, "[unused207]": 212, "neighbouring": 9632, "migrants": 16836, "nods": 11232, "presumably": 10712, "gaining": 8550, "face": 2227, "homework": 19453, "crowns": 24364, "robbed": 20114, "lose": 4558, "animals": 4176, "##\u1d49": 30035, "mcdonald": 9383, "pumps": 15856, "demolished": 7002, "islander": 12544, "protect": 4047, "log": 8833, "eponymous": 15248, "fractures": 28929, "##iya": 8717, "##omy": 16940, "darwin": 11534, "1708": 27337, "choreographer": 17334, "fein": 27132, "multiple": 3674, "plots": 14811, "276": 25113, "promo": 19430, "##lz": 23858, "slate": 12796, "vamps": 24064, "shirt": 3797, "aforementioned": 17289, "hurricanes": 17035, "##din": 8718, "couch": 6411, "##kov": 7724, "monsieur": 21380, "algeria": 11337, "##class": 26266, "medici": 22605, "##zzi": 13793, "bent": 6260, "\u0f60": 1433, "cord": 11601, "authentication": 27280, "shea": 16994, "garrett": 9674, "2020": 12609, "yamamoto": 28318, "[unused971]": 976, "##\u0252": 29678, "offerings": 14927, "stairs": 5108, "coupled": 11211, "eileen": 20495, "arranging": 19018, "##reen": 28029, "exhibited": 8176, "##earing": 27242, "\u02b8": 1144, "carver": 20163, "tenth": 7891, "##%": 29616, "branched": 21648, "##vent": 15338, "george": 2577, "directorate": 13634, "##rat": 8609, "##iana": 11410, "[unused209]": 214, "cutler": 24975, "stabilized": 27697, "##\u961d": 30496, "caledonia": 19305, "rv": 27634, "##zine": 21254, "anderson": 5143, "beasts": 15109, "##mans": 15154, "prolonged": 15330, "aft": 16638, "skyscraper": 24581, "shale": 18488, "lashed": 25694, "griffith": 14135, "irving": 12415, "ross": 5811, "expressions": 11423, "went": 2253, "newcomers": 24159, "betting": 19244, "nair": 22525, "lingered": 17645, "##eus": 10600, "vowel": 12710, "roland": 8262, "uncovered": 14486, "engages": 24255, "feb": 13114, "blackened": 25788, "##\u4eba": 30282, "##bel": 8671, "adapted": 5967, "pyramid": 11918, "sh": 14021, "spirited": 24462, "fivb": 28423, "k": 1047, "arctic": 10162, "dignitaries": 27960, "spearheaded": 27721, "looking": 2559, "##\u5948": 30340, "##\u057d": 29781, "flaws": 21407, "##so": 6499, "roderick": 28326, "their": 2037, "[unused578]": 583, "everest": 23914, "##dridge": 21482, "##\u2012": 30050, "billings": 26124, "adriatic": 23400, "stories": 3441, "\u307e": 1677, "anna": 4698, "##hear": 26560, "spokesman": 14056, "smashing": 21105, "##ity": 3012, "123": 13138, "meg": 12669, "tube": 7270, "##\u53e4": 30315, "fisher": 8731, "di": 4487, "companions": 11946, "disgrace": 29591, "##weig": 27204, "##arina": 27943, "brandy": 17951, "each": 2169, "shields": 11824, "##kura": 28260, "basics": 24078, "piercing": 14628, "millie": 19561, "establishes": 21009, "recreational": 10517, "merger": 7660, "##jin": 14642, "actor": 3364, "mommy": 20565, "solid": 5024, "##een": 12129, "pest": 20739, "disabilities": 13597, "chong": 24008, "statute": 11671, "showcased": 22443, "##rp": 14536, "conceal": 19819, "brighton": 10309, "gene": 4962, "rescued": 10148, "##finger": 20349, "\u00f0": 1098, "consultation": 16053, "invasive": 17503, "ball": 3608, "##dial": 27184, "suv": 15620, "##\u00aa": 29653, "##ami": 10631, "anxiety": 10089, "##ppa": 13944, "\u4f50": 1764, "minorities": 14302, "momma": 23603, "##\u5e74": 30366, "roots": 6147, "redskins": 17461, "marley": 20326, "\u0f54": 1430, "proposals": 10340, "326": 28188, "ongoing": 7552, "[unused728]": 733, "screw": 11224, "##az": 10936, "##pia": 19312, "tuberculosis": 15877, "##lation": 13490, "hollywood": 5365, "tomorrow": 4826, "animation": 7284, "predators": 12630, "hammond": 11309, "unbelievable": 23653, "chronicles": 11906, "financial": 3361, "steele": 12872, "competitors": 10159, "##coe": 16288, "reproductive": 15124, "orderly": 23589, "1917": 4585, "##ndra": 17670, "##\u209a": 30097, "neutron": 20393, "enrolled": 8302, "languages": 4155, "trustee": 13209, "fergus": 21023, "\u093e": 1340, "thence": 23166, "risen": 13763, "agra": 29542, "turned": 2357, "career": 2476, "builder": 12508, "tenants": 14665, "buddies": 24115, "drilled": 24311, "strategic": 6143, "interference": 11099, "##\u2205": 30121, "scraping": 23704, "love": 2293, "marylebone": 28537, "bolivia": 11645, "\u2f65": 1634, "##ulously": 21227, "freighter": 27945, "je": 15333, "##\u30a7": 30223, "manually": 21118, "crap": 10231, "##gned": 19225, "litres": 25783, "goodman": 14514, "##its": 12762, "##rites": 28884, "\u4e95": 1754, "[unused593]": 598, "confirmation": 13964, "##ance": 6651, "lew": 24992, "kung": 18577, "##lland": 26087, "denial": 14920, "reuben": 17294, "transitioned": 23946, "##worth": 5172, "1690": 24765, "faults": 19399, "[unused551]": 556, "propellers": 23405, "lettering": 25782, "theodor": 21448, "abused": 16999, "exterior": 8829, "dos": 9998, "[unused817]": 822, "##kled": 19859, "ufc": 11966, "glasses": 7877, "##igraphy": 23132, "genesis": 11046, "ua": 25423, "fork": 9292, "boilers": 20412, "1756": 22370, "##hearted": 27693, "##enes": 28553, "twilight": 13132, "asphalt": 16295, ":": 1024, "escorting": 23831, "manfred": 19149, "##ela": 10581, "revolver": 17863, "republicans": 10643, "packets": 23730, "##enburg": 12059, "forward": 2830, "meal": 7954, "guarding": 17019, "minnie": 26188, "##kind": 18824, "beautiful": 3376, "unreasonable": 29205, "##vil": 14762, "whitman": 21311, "\u0993": 1352, "wooden": 4799, "\u1d52": 1503, "transgender": 16824, "responsibility": 5368, "dragged": 7944, "##iad": 28665, "anthologies": 25675, "maya": 9815, "disclosure": 19380, "[unused70]": 71, "segregation": 18771, "mug": 14757, "##bread": 27035, "baroque": 10456, "torpedo": 9862, "corbin": 24003, "jen": 15419, "gareth": 20243, "arsenic": 29596, "##ches": 8376, "##\u0e23": 29953, "soccer": 4715, "##udes": 22087, "##lists": 27103, "larson": 21213, "ortiz": 19439, "##ath": 8988, "uncle": 4470, "heightened": 21106, "##trom": 13887, "spare": 8622, "neue": 27713, "[unused283]": 288, "delegates": 10284, "sources": 4216, "pilots": 8221, "##alla": 25425, "jolt": 22538, "md": 9108, "weiss": 17889, "beatles": 11555, "solomon": 9168, "believes": 7164, "engravings": 28611, "##movable": 25661, "aligned": 13115, "aware": 5204, "atkins": 21087, "urges": 23876, "sofia": 8755, "##bry": 25731, "##cene": 17968, "winged": 14462, "plague": 11629, "ve": 2310, "infrared": 14611, "wavelengths": 29263, "yoon": 24863, "uses": 3594, "justine": 26377, "controlled": 4758, "##bla": 28522, "uta": 28981, "puts": 8509, "qing": 13282, "##puted": 29462, "marriages": 12743, "##fighting": 22158, "closing": 5494, "weeds": 20777, "cabinets": 20053, "##tes": 4570, "reigns": 23481, "faces": 5344, "##cks": 10603, "##zen": 10431, "catalyst": 16771, "##\u09ae": 29906, "danielle": 18490, "civic": 8388, "\u0686": 1303, "intently": 16170, "russian": 2845, "\u3078": 1675, "356": 27509, "elliptic": 29413, "##nst": 23808, "promote": 5326, "tyrone": 18770, "absorbed": 9063, "celebrity": 8958, "##sure": 28632, "##\u2282": 30137, "sticking": 13423, "##tford": 26341, "determines": 16463, "nonprofit": 14495, "collisions": 28820, "##over": 7840, "emphasizes": 20618, "rover": 13631, "learn": 4553, "pronunciation": 15498, "[unused238]": 243, "replay": 15712, "compression": 13379, "bavaria": 11606, "gaelic": 11196, "aquino": 24183, "bali": 20222, "\u1161": 1470, "municipal": 4546, "##igen": 29206, "reasoned": 24557, "pleading": 16418, "innovation": 8144, "999": 25897, "manufacture": 9922, "imperfect": 29238, "dissipated": 22572, "cree": 27831, "jj": 29017, "rochdale": 26109, "impromptu": 29213, "grafton": 28680, "extend": 7949, "literal": 18204, "birmingham": 6484, "##lese": 24527, "##bley": 29538, "##tum": 11667, "[unused649]": 654, "##beck": 12750, "flashed": 8373, "creamy": 24519, "flexed": 24244, "##cis": 22987, "##rade": 13662, "womb": 26578, "consistency": 18700, "##fi": 8873, "eli": 12005, "##41": 23632, "mutant": 15527, "oskar": 28626, "overturned": 17068, "fatima": 27596, "uniform": 6375, "\u0259": 1114, "[unused137]": 142, "mandir": 22700, "##bari": 25990, "jensen": 14857, "promotional": 10319, "melee": 27868, "[unused876]": 881, "constituent": 13794, "native": 3128, "padua": 24941, "sweetly": 22557, "fuller": 12548, "\u0bb3": 1393, "\u4e0a": 1742, "epic": 8680, "beans": 13435, "[unused218]": 223, "castle": 3317, "##eka": 19025, "##lot": 10994, "avenge": 24896, "spectra": 29237, "stella": 11894, "imaginary": 15344, "yvonne": 21684, "##nets": 22781, "\u2208": 1596, "messengers": 28938, "militias": 29271, "##\u10da": 29983, "dismounted": 29580, "##par": 19362, "##kell": 18690, "##writing": 18560, "lombardy": 27728, "farm": 3888, "wrote": 2626, "blurted": 18751, "blanchard": 26870, "[unused524]": 529, "cowan": 25752, "##hing": 12053, "conflict": 4736, "collaborators": 21315, "shelter": 7713, "thunder": 8505, "distributed": 5500, "portugal": 5978, "lexi": 16105, "proceeding": 18207, "panels": 9320, "assessing": 20077, "##oid": 9314, "gilbert": 7664, "extant": 12905, "\u0e32": 1422, "dough": 23126, "monetary": 12194, "##uet": 23361, "cricketer": 9490, "lifeless": 22185, "cheated": 22673, "runner": 5479, "aims": 8704, "1885": 6571, "##llar": 17305, "laude": 21602, "combines": 13585, "##\u221e": 30128, "broker": 20138, "infinite": 10709, "account": 4070, "signs": 5751, "existent": 25953, "pain": 3255, "[unused437]": 442, "pena": 19409, "##cade": 21869, "fright": 25966, "compensation": 9430, "syntax": 20231, "pays": 12778, "flown": 10583, "over": 2058, "oaks": 13396, "##3": 2509, "prohibits": 25822, "##\u02b3": 29708, "##nate": 12556, "##our": 8162, "lux": 28359, "poisoned": 17672, "[unused351]": 356, "##fen": 18940, "gaul": 26522, "##clops": 28659, "charters": 23010, "undertaker": 27568, "techno": 21416, "##vale": 17479, "revue": 17480, "molten": 23548, "jubilee": 13078, "half": 2431, "1685": 25053, "diamonds": 11719, "giles": 13287, "bjp": 24954, "bi": 12170, "krakow": 14576, "##dner": 28001, "[unused779]": 784, "[unused391]": 396, "##ra\u00dfe": 27807, "cockpit": 13828, "mortal": 9801, "ranged": 15844, "7": 1021, "##music": 27275, "##\u58eb": 30333, "portage": 25140, "budge": 24981, "lexie": 24123, "naughty": 20355, "##lov": 14301, "pd": 22851, "##stor": 23809, "covered": 3139, "meeting": 3116, "tributaries": 15777, "bloody": 6703, "traded": 7007, "masonry": 18103, "alarmed": 19260, "compound": 7328, "##iting": 15402, "stop": 2644, "analysis": 4106, "reclaim": 24104, "quarterback": 9074, "renewal": 14524, "curvature": 25045, "facts": 8866, "##itating": 16518, "\u30e5": 1729, "bearer": 20905, "crimson": 11466, "##lp": 14277, "saving": 7494, "considerable": 6196, "##hc": 16257, "[unused494]": 499, "acres": 4631, "sykes": 23531, "##mba": 11201, "runway": 9271, "##titled": 21309, "heaviest": 26858, "printer": 15041, "##lynn": 27610, "cdp": 8561, "##deh": 25383, "##lver": 26229, "ass": 4632, "##oit": 28100, "morocco": 9835, "idle": 18373, "irony": 19728, "pv": 26189, "arturo": 20520, "[unused220]": 225, "traced": 9551, "##zer": 6290, "gang": 6080, "getting": 2893, "\u1112": 1469, "willingly": 18110, "materialized": 27075, "1925": 4849, "geoffrey": 11023, "sudden": 5573, "placed": 2872, "splinter": 27546, "wife": 2564, "ex": 4654, "transplant": 22291, "lyricist": 19489, "##bant": 29604, "134": 15170, "##chment": 22729, "#": 1001, "pennant": 22690, "onwards": 9921, "hill": 2940, "##\u221a": 30127, "morgan": 5253, "##ran": 5521, "healing": 8907, "riley": 7546, "##ike": 17339, "literary": 4706, "gum": 16031, "oldies": 26826, "##ulla": 22187, "malone": 16321, "steel": 3886, "##ical": 7476, "manufacturer": 7751, "artifact": 20785, "manufacturers": 8712, "gameplay": 11247, "gate": 4796, "wind": 3612, "treats": 18452, "commerce": 6236, "tokugawa": 22065, "apparently": 4593, "##mad": 25666, "##cen": 27524, "nervously": 12531, "##tl": 19646, "stevie": 17458, "marsden": 29558, "1818": 12094, "tina": 11958, "spence": 22186, "##meister": 28824, "blah": 27984, "neville": 14871, "\u2089": 1556, "demonstrations": 13616, "scripts": 14546, "lithuania": 9838, "##ential": 24271, "atlas": 11568, "##ieg": 28872, "##\u0634": 29825, "newest": 14751, "johnston": 10773, "##gur": 27390, "scholastic": 24105, "encyclopedia": 12204, "710": 27671, "##rae": 16652, "fuselage": 13478, "premiere": 6765, "stalled": 20659, "laboratories": 12030, "seater": 23392, "495": 29302, "##\u00b2": 10701, "childless": 26983, "ranking": 5464, "\u5143": 1769, "elbow": 8999, "glands": 23340, "nl": 17953, "##base": 15058, "buried": 3950, "differing": 16965, "gallagher": 17297, "teenagers": 12908, "sheen": 20682, "inn": 7601, "duluth": 28218, "martinez": 10337, "##\u7537": 30438, "1862": 6889, "exceeding": 17003, "impacted": 19209, "gp": 14246, "ardent": 25314, "emerges": 19391, "promises": 10659, "natalie": 10829, "##hof": 14586, "1st": 3083, "culture": 3226, "declined": 6430, "pierced": 16276, "resignation": 8172, "obedience": 22645, "##lating": 22248, "vault": 11632, "croydon": 21838, "fingertips": 12206, "bollywood": 16046, "refusal": 13948, "vintage": 13528, "constitute": 12346, "wheeled": 17320, "loire": 20399, "sagged": 26719, "##urus": 20089, "soundtrack": 6050, "indus": 27746, "##zaki": 18637, "fever": 9016, "shifted": 5429, "[unused331]": 336, "spur": 12996, "elemental": 19529, "savage": 9576, "sci": 16596, "illustrate": 19141, "toy": 9121, "candidate": 4018, "surprisingly": 10889, "##paper": 23298, "##ndt": 26379, "promotes": 14067, "22nd": 13816, "abstract": 10061, "holidays": 11938, "acton": 28794, "patients": 5022, "##\u6cb3": 30425, "consent": 9619, "liberal": 4314, "##\u3082": 30207, "name": 2171, "\u30db": 1722, "protruding": 23868, "##ingdon": 29138, "\u6ca2": 1898, "marshal": 8610, "bottle": 5835, "argentine": 8511, "youths": 19634, "##code": 16044, "carefully": 5362, "birch": 16421, "##\u2502": 30143, "tenant": 16713, "hiroshima": 20168, "##opped": 27288, "##b": 2497, "pee": 21392, "advocate": 8175, "whitaker": 27049, "##\u0570": 29775, "##krishna": 23017, "angie": 14835, "removal": 8208, "coa": 28155, "safer": 13726, "borders": 6645, "avengers": 14936, "criminals": 12290, "sweden": 4701, "regularly": 5570, "popping": 20095, "##ore": 5686, "##ldon": 19932, "kincaid": 24510, "flynn": 13259, "affecting": 12473, "therapeutic": 17261, "advertisements": 14389, "adapt": 15581, "##park": 14432, "hired": 5086, "##aking": 15495, "nikolay": 28494, "forested": 15205, "terrain": 9291, "tighten": 21245, "##lies": 11983, "accession": 16993, "##omi": 20936, "[unused992]": 997, "##fe": 7959, "adults": 6001, "##aris": 23061, "investor": 14316, "##\u6cbb": 30426, "advantages": 12637, "horseback": 19926, "implements": 22164, "shit": 4485, "montpellier": 28153, "un": 4895, "entourage": 25342, "identical": 7235, "columnist": 13317, "bulgaria": 8063, "released": 2207, "780": 28601, "[unused45]": 46, "[unused972]": 977, "1699": 28718, "269": 25717, "##gno": 26745, "##gun": 12734, "##rous": 13288, "bribes": 29117, "sunderland": 15518, "celaena": 29252, "hissing": 26386, "panzer": 16946, "apprehension": 25809, "ashok": 28916, "messy": 18307, "simpsons": 19047, "administering": 28965, "##jah": 18878, "norm": 13373, "##logical": 9966, "finch": 16133, "shell": 5806, "##torium": 24390, "##tsk": 29064, "1824": 11617, "##aga": 16098, "##aj": 13006, "icc": 16461, "draw": 4009, "[unused372]": 377, "##hesis": 24124, "mara": 13955, "##\u0447": 29752, "keyboardist": 20173, "1897": 6347, "narcotics": 27290, "trailer": 9117, "wizards": 16657, "r": 1054, "hamas": 22129, "pcs": 27019, "update": 10651, "resides": 11665, "persecuted": 27666, "[unused813]": 818, "firm": 3813, "smirk": 15081, "##uation": 14505, "##nio": 27678, "adjacent": 5516, "vacation": 10885, "nikolai": 13870, "\u0294": 1139, "scrolling": 28903, "sparta": 21251, "resistant": 13070, "cold": 3147, "gabriel": 6127, "hunger": 9012, "hilly": 22800, "nationalism": 14594, "acclaim": 10761, "fuels": 20145, "address": 4769, "indie": 10271, "straw": 13137, "##lia": 6632, "\u0565": 1223, "garion": 12523, "prosecutors": 19608, "milk": 6501, "ear": 4540, "connacht": 27062, "mob": 11240, "annex": 17827, "[unused446]": 451, "soda": 14904, "obama": 8112, "conventions": 12472, "1738": 28009, "target": 4539, "models": 4275, "conversions": 25834, "##aring": 22397, "students": 2493, "\u02bf": 1148, "manifesto": 17124, "##trix": 29184, "dixon": 11357, "irs": 25760, "remember": 3342, "besides": 4661, "typically": 4050, "##gic": 12863, "encompass": 25281, "##pad": 15455, "disneyland": 25104, "\u305d": 1660, "##rita": 17728, "panama": 8515, "instant": 7107, "##rand": 13033, "banning": 21029, "pol": 14955, "cdc": 26629, "##physics": 15638, "tandem": 18231, "strolled": 20354, "lennon": 14294, "maitland": 25511, "midsummer": 28171, "henson": 27227, "timeless": 27768, "##\u2097": 30095, "settlements": 7617, "samsung": 19102, "1667": 27643, "prima": 21111, "interiors": 20769, "jesuits": 20297, "metre": 7924, "holocaust": 11513, "[unused697]": 702, "serpent": 16517, "brussels": 9371, "gottfried": 26142, "fletcher": 10589, "niece": 12286, "unified": 10562, "##\u0927": 29862, "loud": 5189, "sneakers": 28130, "translated": 5421, "v": 1058, "dempsey": 28165, "polo": 11037, "sanjay": 29590, "loco": 28046, "olds": 19457, "theresa": 14781, "[unused181]": 186, "patrolling": 24248, "dia": 22939, "observatory": 9970, "purcell": 26429, "interacting": 21935, "[unused807]": 812, "mentoring": 29192, "##nk": 8950, "##neas": 26737, "region": 2555, "wasps": 23146, "slipping": 11426, "##lines": 12735, "pick": 4060, "rafael": 10999, "repeats": 17993, "manuel": 7762, "oral": 8700, "fought": 4061, "ethical": 12962, "proposing": 21991, "simultaneously": 7453, "relocating": 26811, "[unused926]": 931, "sebastian": 6417, "discovers": 9418, "[unused96]": 97, "around": 2105, "schoolhouse": 26301, "##cy": 5666, "darting": 24567, "\u0936": 1336, "maccabi": 24055, "preparations": 12929, "##yler": 20853, "aria": 9342, "##cum": 24894, "pry": 29198, "disciplined": 28675, "implicated": 20467, "peugeot": 26385, "hugged": 10308, "maverick": 27187, "[unused126]": 131, "entitled": 4709, "busiest": 20530, "detonated": 28110, "oasis": 18128, "optic": 22816, "twitching": 25402, "floyd": 12305, "##listic": 27348, "lovely": 8403, "stryker": 25429, "##hand": 11774, "38th": 22051, "malice": 28238, "inferior": 14092, "nominee": 9773, "[unused263]": 268, "##landa": 24448, "hostess": 22566, "mani": 23624, "baby": 3336, "an": 2019, "venice": 7914, "trousers": 15292, "surprising": 11341, "plum": 22088, "illegally": 17800, "312": 21036, "rachel": 5586, "repetition": 23318, "wig": 24405, "counting": 10320, "leapt": 13920, "##omo": 19506, "lever": 15929, "sea": 2712, "82": 6445, "##inated": 15833, "rhythmic": 14797, "horizontally": 23190, "##\u0290": 29702, "deploy": 21296, "\u1167": 1474, "##ister": 12911, "##iny": 24300, "hz": 22100, "opposes": 29158, "##tino": 25690, "choking": 18329, "##\u7530": 30437, "sebastien": 28328, "resisting": 22363, "auditory": 28042, "opened": 2441, "salman": 28542, "behave": 16582, "marie": 5032, "nonsense": 14652, "tel": 10093, "##\u6a4b": 30411, "resurrected": 23053, "dead": 2757, "constructed": 3833, "dwelling": 13160, "##ms": 5244, "beau": 17935, "##type": 13874, "jungle": 8894, "##ive": 3512, "blackberry": 25935, "##vik": 13309, "recess": 28290, "##\u06af": 29842, "summer": 2621, "compressed": 16620, "vatican": 12111, "##user": 20330, "rural": 3541, "summon": 18654, "attracts": 17771, "steve": 3889, "supplying": 17731, "immigrant": 11560, "tasmania": 12343, "yell": 14315, "##het": 27065, "##yck": 28377, "resigning": 24642, "roaring": 17197, "##hya": 17915, "##ass": 12054, "obtain": 6855, "##pas": 19707, "##pts": 22798, "##hunter": 25629, "sexual": 4424, "gestapo": 26446, "directional": 20396, "##\u02b0": 29706, "distributing": 20083, "rope": 8164, "wisdom": 9866, "portraying": 17274, "steamship": 23869, "substituted": 17316, "bram": 20839, "immensely": 24256, "terrible": 6659, "geometric": 14965, "380": 17014, "planted": 8461, "##llie": 23697, "##eiro": 17166, "dome": 8514, "elected": 2700, "cory": 18342, "glaciers": 21193, "dated": 6052, "detailing": 17555, "quarter": 4284, "vi": 6819, "##\u91cc": 30488, "justices": 19867, "cinematographer": 19245, "\u0e27": 1419, "scowl": 19981, "tad": 18819, "[unused23]": 24, "tentatively": 19325, "##naut": 24619, "dementia": 28767, "exploited": 18516, "southwest": 4943, "[unused27]": 28, "careful": 6176, "external": 6327, "bargaining": 21990, "surpassing": 27097, "hay": 10974, "##fu": 11263, "softness": 27012, "finalists": 13527, "election": 2602, "monopoly": 15404, "governorate": 15162, "##icles": 20921, "intellectuals": 17412, "terence": 22677, "evacuate": 22811, "continually": 14678, "##uin": 20023, "##neer": 19755, "bae": 25818, "frances": 10360, "capture": 5425, "investigators": 14766, "outsider": 21002, "gifts": 9604, "sons": 4124, "served": 2366, "iraqi": 8956, "underneath": 7650, "wire": 7318, "d": 1040, "demanding": 9694, "##\u300c": 30167, "tutor": 14924, "remixes": 15193, "##lena": 20844, "##fold": 10371, "playfully": 22608, "massimo": 28080, "inline": 23881, "capitol": 9424, "[unused600]": 605, "protective": 9474, "professional": 2658, "tease": 18381, "member": 2266, "##\u03b6": 29724, "championed": 28683, "strategies": 9942, "cell": 3526, "molecule": 13922, "equestrian": 19191, "carriages": 17744, "differ": 11234, "compiled": 9227, "symphonic": 18957, "plotted": 27347, "weakened": 11855, "2a": 23409, "\u2194": 1587, "surveyed": 12876, "[unused865]": 870, "peanut": 21443, "[unused950]": 955, "sargent": 27599, "orion": 18747, "placement": 11073, "##ylus": 18871, "notably": 5546, "grimes": 24865, "##igan": 10762, "chilling": 27017, "merged": 5314, "formation": 4195, "also": 2036, "belgian": 6995, "justified": 15123, "beit": 28236, "##imus": 19315, "thierry": 26413, "bitterness": 22364, "distinguish": 10782, "botanical": 13194, "intimidated": 28028, "##eb": 15878, "spotting": 27963, "syllable": 16353, "springer": 17481, "wiley": 18825, "deputy": 4112, "##rica": 14735, "simi": 28684, "luck": 6735, "##igny": 26978, "zen": 16729, "mall": 6670, "oro": 20298, "za": 23564, "determination": 9128, "randall": 12813, "ncaa": 5803, "##ask": 19895, "##pment": 24073, "protected": 5123, "##ym": 24335, "handel": 21465, "\u044e": 1209, "narrowed": 8061, "harmonica": 16527, "notorious": 12536, "affects": 13531, "##\u0993": 29888, "loops": 15932, "eugene": 8207, "##ast": 14083, "inverness": 22937, "\u0627": 1270, "preston": 8475, "##wald": 11191, "leads": 5260, "##ellant": 24178, "##unda": 18426, "##o": 2080, "##\u00b5": 29659, "manly": 19385, "##yo": 7677, "steady": 6706, "starvation": 22611, "kept": 2921, "boulevard": 8459, "interceptions": 18387, "[unused537]": 542, "oslo": 9977, "##ingly": 15787, "northeastern": 8763, "##\u795e": 30451, "[unused313]": 318, "it": 2009, "trap": 8132, "\u02e3": 1153, "##est": 4355, "conversations": 11450, "laundry": 14533, "proto": 15053, "consonant": 18265, "gospel": 8036, "##isance": 28138, "pei": 26850, "fascinating": 17160, "##era": 6906, "nicola": 17388, "substance": 9415, "figuring": 23218, "tab": 21628, "incidence": 18949, "impaired": 18234, "frustrated": 10206, "##urg": 12514, "television": 2547, "1716": 28204, "stuck": 5881, "biblical": 10213, "bernardo": 21175, "sending": 6016, "193": 19984, "admire": 19837, "stalker": 23883, "[unused362]": 367, "ottomans": 17774, "serve": 3710, "marriott": 26490, "sharon": 10666, "affluent": 22666, "five": 2274, "##ote": 12184, "said": 2056, "##itors": 27287, "##\u304f": 30179, "bankers": 25375, "panting": 15601, "##neuve": 28104, "authoritarian": 27246, "iona": 22347, "rejoined": 14311, "##\u05d5": 29792, "##inian": 15830, "reserves": 8269, "##rug": 26549, "##\u30d8": 30247, "[unused708]": 713, "##vres": 24790, "[unused585]": 590, "brawl": 23244, "protector": 16167, "##rence": 24413, "regulate": 15176, "gabby": 27183, "auguste": 20758, "mouse": 8000, "outstretched": 21059, "##lund": 18028, "centuries": 4693, "weary": 16040, "##dav": 29045, "caitlin": 27555, "snarl": 24845, "monmouth": 20433, "##\u0563": 29768, "##pods": 22925, "notoriety": 23215, "##cula": 19879, "ashton": 13772, "counterattack": 27835, "##idi": 28173, "forbidden": 10386, "desirable": 16166, "thigh": 10120, "ensures": 21312, "joanne": 23459, "\u2078": 1542, "liang": 16982, "[unused24]": 25, "maids": 29229, "alterations": 16705, "##nted": 14706, "ritter": 23168, "codex": 15763, "exhibits": 10637, "##uding": 24539, "propaganda": 10398, "##\u00b9": 27904, "goth": 25976, "##nese": 14183, "lowers": 24950, "screen": 3898, "fluctuations": 28892, "archival": 22796, "##\u11b7": 30023, "productions": 5453, "domino": 23968, "highly": 3811, "intercollegiate": 21587, "camera": 4950, "reveal": 7487, "##ichi": 11319, "\u062e": 1277, "chamberlain": 13904, "sai": 18952, "spirituality": 21244, "commons": 7674, "intercept": 19115, "lion": 7006, "impose": 17607, "quantum": 8559, "\u028c": 1134, "gloom": 24067, "##scu": 28817, "ar": 12098, "plural": 13994, "years": 2086, "bois": 19651, "##tham": 22536, "senator": 5205, "##girl": 15239, "##bone": 14417, "\u9762": 1976, "rapids": 12775, "mark": 2928, "catcher": 13795, "service": 2326, "modernized": 27140, "effective": 4621, "flush": 13862, "oriented": 8048, "##iti": 25090, "giuseppe": 12574, "matter": 3043, "sarcastically": 23800, "##log": 21197, "\uff1f": 1994, "steered": 23424, "clues": 15774, "frigates": 22833, "netting": 26909, "che": 18178, "arc": 8115, "holmes": 9106, "##land": 3122, "kara": 13173, "116": 12904, "sanitary": 25480, "realises": 25924, "burke": 9894, "tamara": 21772, "jan": 5553, "lawsuits": 20543, "[unused160]": 165, "##md": 26876, "\u026b": 1120, "transformers": 19081, "ama": 25933, "speculative": 23250, "handwriting": 24149, "microwave": 18302, "westphalia": 22952, "##ves": 6961, "pablo": 11623, "lasted": 6354, "730": 28004, "##iter": 21646, "metabolic": 21453, "cameo": 12081, "1872": 7572, "kingston": 9803, "specifications": 15480, "consulate": 19972, "crushing": 14527, "\u30ce": 1717, "seminary": 8705, "bluff": 14441, "##eman": 16704, "neumann": 22860, "##rkin": 26891, "churches": 5231, "costing": 22173, "pierce": 9267, "kimberley": 25004, ";": 1025, "likeness": 28275, "##glers": 25555, "##ham": 3511, "bonding": 19882, "##fa": 7011, "righteous": 19556, "thumb": 7639, "villas": 27317, "john": 2198, "rustling": 29188, "[unused432]": 437, "peru": 7304, "things": 2477, "\u0e17": 1412, "##ged": 5999, "\u0636": 1285, "persians": 27229, "drowning": 14759, "##ica": 5555, "##isan": 29196, "recognizes": 14600, "sticky": 15875, "delightful": 26380, "1960": 3624, "##\u2021": 30062, "chet": 25157, "shifts": 12363, "gmina": 7061, "ill": 5665, "townships": 13991, "cecil": 11978, "denim": 26762, "##\u062f": 15394, "demolition": 12451, "obstruction": 27208, "engines": 5209, "ryder": 11731, "industries": 6088, "gorgeous": 9882, "butterflies": 15023, "lasers": 23965, "47th": 28243, "##arney": 25831, "##scia": 27210, "speeding": 21485, "polled": 26847, "producers": 6443, "ounce": 19471, "shrill": 28349, "geographically": 20969, "po": 13433, "electrons": 15057, "1980s": 3865, "301": 19123, "warwick": 13283, "##tre": 7913, "callie": 20072, "prison": 3827, "chambers": 8477, "##uri": 9496, "bayou": 24818, "applause": 20737, "##xing": 19612, "medals": 6665, "\u0621": 1269, "indeed": 5262, "doc": 9986, "##eum": 14820, "fen": 21713, "counselor": 17220, "##kow": 24144, "scattered": 7932, "##istle": 24242, "##zia": 12871, "clicks": 29225, "heartbreak": 27724, "[unused900]": 905, "siegfried": 25948, "\u2098": 1567, "##helm": 24546, "[unused632]": 637, "include": 2421, "punish": 16385, "dorothy": 9984, "##erre": 28849, "flex": 23951, "parole": 17393, "munro": 20923, "##ano": 6761, "riots": 12925, "[unused404]": 409, "[unused262]": 267, "##tray": 28473, "cinematography": 16434, "sun": 3103, "das": 8695, "layla": 19786, "kangaroo": 21652, "grows": 7502, "##llen": 12179, "deposited": 14140, "didn": 2134, "ieee": 15368, "214": 19936, "wages": 12678, "stared": 3592, "yugoslav": 12292, "atomic": 9593, "feed": 5438, "overboard": 27089, "##\u793a": 30449, "textile": 12437, "1979": 3245, "term": 2744, "citing": 8951, "confirming": 19195, "[unused961]": 966, "censorship": 15657, "granddaughter": 12787, "bart": 12075, "\u2500": 1615, "grins": 20237, "milwaukee": 9184, "gunnar": 26138, "##hes": 15689, "##anger": 25121, "shadow": 5192, "##ney": 5420, "leg": 4190, "##cc": 9468, "archer": 11024, "toxin": 29090, "[unused823]": 828, "voltage": 10004, "bonus": 6781, "yells": 22114, "knoxville": 20021, "fixtures": 17407, "crafts": 14030, "rowe": 20538, "##stis": 29472, "##qua": 16211, "government": 2231, "1622": 28133, "jacobite": 28725, "claudio": 19569, "[unused28]": 29, "##\u72ac": 30434, "##wt": 26677, "##\u0f54": 29966, "reassuring": 21093, "\u306e": 1671, "hannibal": 24181, "instrumentalist": 29253, "##ble": 3468, "fibers": 16662, "sarcastic": 22473, "bro": 22953, "filipino": 10275, "th": 16215, "##\u306c": 30195, "clapped": 18310, "befriended": 23386, "derives": 12153, "##uising": 28580, "disappointing": 15640, "laurent": 14718, "chapters": 9159, "recommendations": 11433, "[unused42]": 43, "replication": 21647, "increases": 7457, "dedicated": 4056, "##rac": 22648, "##pipe": 24548, "##cca": 16665, "duo": 6829, "##\u90ce": 30484, "##wich": 12414, "##bler": 16213, "feud": 13552, "percussion": 6333, "##tails": 22081, "unfolded": 23959, "sermons": 20855, "stillness": 29435, "minds": 9273, "resulted": 4504, "wagner": 10304, "angola": 13491, "weaving": 15360, "usher": 20774, "snooker": 26448, "zane": 6944, "##\u5357": 30311, "bronze": 4421, "complex": 3375, "##lium": 21816, "fraction": 12884, "windsor": 10064, "pounded": 13750, "##\u02e3": 29718, "mongols": 22235, "##nce": 5897, "23": 2603, "christoph": 21428, "##leg": 23115, "1753": 23810, "elves": 16980, "die": 3280, "marian": 14042, "fairies": 20182, "##\u5ca1": 30358, "rochelle": 25649, "audible": 19525, "bono": 23648, "readiness": 19822, "acquiring": 13868, "persist": 29486, "ulrich": 19619, "processed": 13995, "stink": 27136, "##?": 29632, "phylogenetic": 23192, "blogger": 28205, "dil": 29454, "successor": 6332, "blacksmith": 20987, "1848": 7993, "waking": 12447, "reduces": 13416, "serving": 3529, "effortlessly": 29483, "##ense": 16700, "accommodate": 8752, "rainer": 28035, "lava": 13697, "##brand": 23544, "resistance": 5012, "adherence": 29235, "romeo": 12390, "##eau": 10207, "credentials": 22496, "geography": 10505, "packaging": 14793, "##ech": 15937, "quezon": 26564, "edict": 24754, "install": 16500, "wilde": 18575, "moisture": 14098, "commercial": 3293, "gliding": 20292, "##otho": 29288, "##ility": 15148, "performs": 10438, "agreements": 10540, "western": 2530, "cash": 5356, "##page": 13704, "##lius": 15513, "grimaced": 19014, "[unused423]": 428, "pga": 14198, "appears": 3544, "bags": 8641, "invertebrates": 25700, "prime": 3539, "solemnly": 26294, "ufo": 24321, "##lined": 18194, "radar": 7217, "hoping": 5327, "##gano": 29451, "##antly": 15706, "regis": 20588, "aids": 8387, "geoff": 14915, "##uting": 20807, "kirk": 11332, "c1": 27723, "sedan": 15134, "jeopardy": 26604, "158": 17696, "symmetric": 19490, "forearms": 27323, "##rmin": 27512, "[unused946]": 951, "rey": 12569, "marlon": 25861, "apocalyptic": 27660, "parcels": 28998, "##mussen": 29134, "allah": 16455, "joining": 5241, "##pi": 8197, "bosnia": 9562, "moment": 2617, "##ium": 5007, "collection": 3074, "\u21a6": 1588, "prominently": 14500, "helsinki": 12331, "elizabeth": 3870, "\u062a": 1273, "97": 5989, "##\u9752": 30501, "##ffey": 24513, "gale": 14554, "\u0290": 1136, "examiner": 19684, "beaches": 12212, "fragments": 10341, "seven": 2698, "##\u0bb0": 29927, "fargo": 23054, "disrupted": 20275, "\u30e3": 1728, "pilasters": 26752, "##mmon": 24521, "##oise": 23565, "triangular": 14023, "designer": 5859, "batavia": 28917, "bobo": 27418, "alcoholism": 25519, "##open": 26915, "##\u0e15": 29947, "[unused618]": 623, "glue": 25238, "monitoring": 8822, "memo": 24443, "##eding": 17819, "racetrack": 28435, "##anies": 28064, "##ddin": 18277, "airfields": 25278, "##wice": 23425, "##dda": 25062, "retaliation": 18695, "marquess": 17391, "imports": 17589, "charted": 12568, "##\u0628\u0627\u062f": 25799, "struggling": 8084, "##\u044b": 29113, "##\u044d": 29756, "stops": 6762, "[unused772]": 777, "\u611b": 1853, "1758": 16832, "decks": 19963, "nilsson": 29376, "gunfire": 16978, "##uen": 24997, "median": 3991, "cortex": 17132, "##laise": 25122, "##very": 27900, "founding": 4889, "economists": 22171, "##war": 9028, "##lized": 28931, "##osis": 12650, "exceptional": 11813, "##dlow": 27002, "[unused595]": 600, "regions": 4655, "font": 15489, "\u661f": 1866, "shocking": 16880, "brown": 2829, "##active": 19620, "36th": 21460, "licence": 11172, "continents": 17846, "##gens": 21230, "saskatchewan": 10068, "parasite": 21198, "commodity": 19502, "base": 2918, "##nsen": 29428, "fey": 23864, "suite": 7621, "approaching": 8455, "underground": 5230, "presentations": 18216, "distinctive": 8200, "##iner": 26455, "bayer": 26367, "##lez": 28060, "receipts": 28258, "intersections": 26540, "military": 2510, "creations": 20677, "hymn": 14825, "1663": 29016, "foundry": 19853, "conscious": 9715, "\u00a7": 1073, "1701": 26059, "maternal": 11062, "xiv": 15939, "recalls": 17722, "##sling": 28886, "searches": 17193, "saturdays": 18860, "passing": 4458, "##akes": 20060, "impress": 17894, "golfer": 20601, "##zz": 13213, "1611": 28769, "##thy": 16921, "baldwin": 10970, "impacts": 14670, "thistle": 24328, "broad": 5041, "[unused968]": 973, "parma": 19177, "lia": 22393, "unification": 16905, "demon": 5698, "##pt": 13876, "##pired": 21649, "await": 26751, "naked": 6248, "vile": 25047, "immature": 26838, "tricks": 12225, "bit": 2978, "chef": 10026, "shandong": 25768, "##ut": 4904, "delivery": 6959, "sinking": 10186, "##pol": 18155, "##esthesia": 25344, "unarmed": 23206, "leave": 2681, "dozen": 6474, "##rea": 16416, "gnome": 25781, "##\u02bbi": 26444, "bandits": 19088, "itself": 2993, "##\u30b9": 30233, "decent": 11519, "adhere": 25276, "inconsistent": 20316, "##cuting": 29163, "winced": 15574, "gregorian": 25847, "##gina": 20876, "verge": 16079, "##gre": 17603, "rockefeller": 16696, "ebony": 27680, "##ibar": 26656, "sync": 26351, "vichy": 29177, "##\u82b1": 30466, "registered": 5068, "##\u694a": 30409, "forms": 3596, "##erman": 18689, "com": 4012, "##ern": 11795, "navarro": 23524, "brasil": 21133, "cr": 13675, "boone": 15033, "narrative": 7984, "dumb": 12873, "snarled": 15022, "cloud": 6112, "midfielder": 8850, "silas": 18553, "[unused866]": 871, "##zuka": 22968, "##3d": 29097, "2004": 2432, "week": 2733, "sahara": 19604, "[unused387]": 392, "bryce": 19757, "houghton": 21234, "smithsonian": 15720, "cavalry": 5945, "##em": 6633, "giggled": 15889, "##dman": 21804, "guatemala": 11779, "##hem": 29122, "[unused723]": 728, "glow": 8652, "alicia": 15935, "releases": 7085, "##\u0b9f": 29920, "##vili": 21661, "##hin": 10606, "insistent": 29204, "basel": 14040, "casting": 9179, "strings": 7817, "uppsala": 25720, "miners": 11257, "penal": 18476, "hurdles": 18608, "ames": 19900, "torches": 24711, "megan": 12756, "editions": 6572, "pricing": 20874, "1941": 3874, "urban": 3923, "glory": 8294, "freshman": 10452, "##ality": 23732, "precedent": 20056, "remembering": 10397, "1930": 4479, "posthumous": 19086, "rpm": 11575, "pearce": 19560, "uefa": 6663, "paintings": 5265, "ol": 19330, "trying": 2667, "##\u6728": 30401, "planner": 24555, "mattered": 13836, "klaus": 16536, "##isa": 14268, "##\u65b9": 30389, "assyrian": 19950, "charms": 24044, "cringed": 23952, "corrugated": 27186, "##peed": 25599, "[unused319]": 324, "relates": 14623, "##ott": 14517, "hardy": 9532, "downtown": 5116, "guineas": 22385, "descending": 15127, "stipulated": 25729, "prescription": 20422, "wong": 11789, "gradual": 16612, "feeding": 8521, "lips": 2970, "describing": 7851, "mandolin": 17687, "[unused416]": 421,
[...]
